{
  "eos": 0, 
  "UNK": 1, 
  "的": 2, 
  "，": 3, 
  "。": 4, 
  "和": 5, 
  "在": 6, 
  "、": 7, 
  "是": 8, 
  ")": 9, 
  "(": 10, 
  "一": 11, 
  "这": 12, 
  "个": 13, 
  ".": 14, 
  "了": 15, 
  "“": 16, 
  "不": 17, 
  "”": 18, 
  "有": 19, 
  "对": 20, 
  "为": 21, 
  "委员会": 22, 
  "/": 23, 
  "将": 24, 
  "并": 25, 
  "各": 26, 
  "国家": 27, 
  "我": 28, 
  "中": 29, 
  "问题": 30, 
  "我们": 31, 
  "政府": 32, 
  "及": 33, 
  "所": 34, 
  "会议": 35, 
  "或": 36, 
  "与": 37, 
  "该": 38, 
  "就": 39, 
  "其": 40, 
  "以": 41, 
  "国际": 42, 
  "而": 43, 
  "人": 44, 
  "联合国": 45, 
  "上": 46, 
  "工作": 47, 
  "：": 48, 
  "发展": 49, 
  "会": 50, 
  "；": 51, 
  "国": 52, 
  "项": 53, 
  "有关": 54, 
  "方面": 55, 
  "组织": 56, 
  "也": 57, 
  "到": 58, 
  "进行": 59, 
  "种": 60, 
  "说": 61, 
  "提供": 62, 
  "报告": 63, 
  "他": 64, 
  "这些": 65, 
  "本": 66, 
  "应": 67, 
  "可": 68, 
  "社会": 69, 
  "情况": 70, 
  "号": 71, 
  "向": 72, 
  "两": 73, 
  "已": 74, 
  "年": 75, 
  "地": 76, 
  "次": 77, 
  "其他": 78, 
  "经济": 79, 
  "以及": 80, 
  "条": 81, 
  "还": 82, 
  "关于": 83, 
  "主席": 84, 
  "包括": 85, 
  "机构": 86, 
  "决议": 87, 
  "要": 88, 
  "通过": 89, 
  "提出": 90, 
  "行动": 91, 
  "由": 92, 
  "都": 93, 
  "建议": 94, 
  "时": 95, 
  "安全": 96, 
  "但": 97, 
  "能": 98, 
  "方案": 99, 
  "内": 100, 
  "他们": 101, 
  "没有": 102, 
  "活动": 103, 
  "被": 104, 
  "来": 105, 
  ";": 106, 
  "下": 107, 
  "执行": 108, 
  "议员": 109, 
  "人员": 110, 
  "新": 111, 
  "根据": 112, 
  "合作": 113, 
  "任何": 114, 
  "特别": 115, 
  "所有": 116, 
  "此": 117, 
  "大会": 118, 
  "认为": 119, 
  "规定": 120, 
  "香港": 121, 
  "a": 122, 
  "更": 123, 
  "使": 124, 
  "决定": 125, 
  "需要": 126, 
  "代表": 127, 
  "必须": 128, 
  "多": 129, 
  "可以": 130, 
  "中国": 131, 
  "和平": 132, 
  "至": 133, 
  "草案": 134, 
  "人权": 135, 
  "从": 136, 
  "理事会": 137, 
  "计划": 138, 
  "作出": 139, 
  "它": 140, 
  "项目": 141, 
  "采取": 142, 
  "要求": 143, 
  "名": 144, 
  "可能": 145, 
  "于": 146, 
  "先生": 147, 
  "服务": 148, 
  "继续": 149, 
  "世界": 150, 
  "最": 151, 
  "等": 152, 
  "法律": 153, 
  "？": 154, 
  "大": 155, 
  ":": 156, 
  "措施": 157, 
  "每": 158, 
  "支持": 159, 
  "表示": 160, 
  "一些": 161, 
  "妇女": 162, 
  "秘书长": 163, 
  "重要": 164, 
  "公约": 165, 
  "段": 166, 
  "区域": 167, 
  "影响": 168, 
  "1": 169, 
  "政策": 170, 
  "届": 171, 
  "技术": 172, 
  "很": 173, 
  "因此": 174, 
  "努力": 175, 
  "同": 176, 
  "未": 177, 
  "条例": 178, 
  "因为": 179, 
  "於": 180, 
  "地区": 181, 
  "加强": 182, 
  "作为": 183, 
  "系统": 184, 
  "人民": 185, 
  "管理": 186, 
  "主要": 187, 
  "考虑": 188, 
  "资源": 189, 
  "儿童": 190, 
  "权利": 191, 
  "环境": 192, 
  "举行": 193, 
  "注意": 194, 
  "2": 195, 
  "请": 196, 
  "美元": 197, 
  "已经": 198, 
  "促进": 199, 
  "解决": 200, 
  "文件": 201, 
  "公司": 202, 
  "呢": 203, 
  "如": 204, 
  "三": 205, 
  "教育": 206, 
  "关系": 207, 
  "如果": 208, 
  "部分": 209, 
  "成员": 210, 
  "代表团": 211, 
  "资料": 212, 
  "美国": 213, 
  "希望": 214, 
  "亦": 215, 
  "目前": 216, 
  "增加": 217, 
  "建立": 218, 
  "审议": 219, 
  "b": 220, 
  "研究": 221, 
  "期间": 222, 
  "只": 223, 
  "非": 224, 
  "3": 225, 
  "须": 226, 
  "前": 227, 
  "意见": 228, 
  "使用": 229, 
  "之间": 230, 
  "把": 231, 
  "发言": 232, 
  "确保": 233, 
  "其中": 234, 
  "政治": 235, 
  "援助": 236, 
  "指出": 237, 
  "部门": 238, 
  "则": 239, 
  "第一": 240, 
  "目标": 241, 
  "小组": 242, 
  "现在": 243, 
  "-": 244, 
  "处理": 245, 
  "给": 246, 
  "作": 247, 
  "讨论": 248, 
  "你": 249, 
  "中心": 250, 
  "保护": 251, 
  "之": 252, 
  "得到": 253, 
  "行政": 254, 
  "后": 255, 
  "能够": 256, 
  "全": 257, 
  "又": 258, 
  "行为": 259, 
  "能力": 260, 
  "当局": 261, 
  "参与": 262, 
  "共和国": 263, 
  "那": 264, 
  "间": 265, 
  "是否": 266, 
  "进一步": 267, 
  "有效": 268, 
  "时间": 269, 
  "这样": 270, 
  "开始": 271, 
  "领域": 272, 
  "即": 273, 
  "特别是": 274, 
  "制度": 275, 
  "作用": 276, 
  "非洲": 277, 
  "获得": 278, 
  "提交": 279, 
  "人士": 280, 
  "基金": 281, 
  "审查": 282, 
  "程序": 283, 
  "应该": 284, 
  "同时": 285, 
  "位": 286, 
  "原则": 287, 
  "取得": 288, 
  "它们": 289, 
  "但是": 290, 
  "第二": 291, 
  "基础": 292, 
  "事务": 293, 
  "参加": 294, 
  "部队": 295, 
  "强调": 296, 
  "[": 297, 
  "]": 298, 
  "款": 299, 
  "实施": 300, 
  "者": 301, 
  "4": 302, 
  "市场": 303, 
  "实现": 304, 
  "调查": 305, 
  "方式": 306, 
  "港": 307, 
  "由于": 308, 
  "许多": 309, 
  "受": 310, 
  "贸易": 311, 
  "费用": 312, 
  "另": 313, 
  "修订": 314, 
  "份": 315, 
  "协调": 316, 
  "充分": 317, 
  "以便": 318, 
  "适当": 319, 
  "正": 320, 
  "发生": 321, 
  "维持": 322, 
  "必要": 323, 
  "任务": 324, 
  "冲突": 325, 
  "好": 326, 
  "范围": 327, 
  "提高": 328, 
  "而且": 329, 
  "令": 330, 
  "正在": 331, 
  "5": 332, 
  "按照": 333, 
  "用": 334, 
  "责任": 335, 
  "接受": 336, 
  "人口": 337, 
  "办法": 338, 
  "机会": 339, 
  "得": 340, 
  "安排": 341, 
  "月": 342, 
  "此外": 343, 
  "持续": 344, 
  "成为": 345, 
  "经": 346, 
  "再": 347, 
  "条件": 348, 
  "进程": 349, 
  "c": 350, 
  "做": 351, 
  "伊拉克": 352, 
  "才": 353, 
  "法院": 354, 
  "着": 355, 
  "发展中": 356, 
  "议程": 357, 
  "造成": 358, 
  "协助": 359, 
  "让": 360, 
  "为了": 361, 
  "缔约国": 362, 
  "严重": 363, 
  "全面": 364, 
  "12月": 365, 
  "想": 366, 
  "受到": 367, 
  "设立": 368, 
  "今天": 369, 
  "安理会": 370, 
  "减少": 371, 
  "欢迎": 372, 
  "後": 373, 
  "结果": 374, 
  "联合": 375, 
  "预算": 376, 
  "外": 377, 
  "目的": 378, 
  "方法": 379, 
  "利用": 380, 
  "方": 381, 
  "不同": 382, 
  "见": 383, 
  "类": 384, 
  "自己": 385, 
  "难民": 386, 
  "欧洲": 387, 
  "市民": 388, 
  "较": 389, 
  "仍": 390, 
  "文化": 391, 
  "秘书处": 392, 
  "标准": 393, 
  "共同": 394, 
  "协定": 395, 
  "地方": 396, 
  "积极": 397, 
  "她": 398, 
  "高": 399, 
  "办事处": 400, 
  "6": 401, 
  "改善": 402, 
  "元": 403, 
  "开发": 404, 
  "条约": 405, 
  "信息": 406, 
  "投资": 407, 
  "1998年": 408, 
  "因": 409, 
  "改革": 410, 
  "全球": 411, 
  "基本": 412, 
  "便": 413, 
  "需": 414, 
  "天": 415, 
  "具体": 416, 
  "同意": 417, 
  "几": 418, 
  "期": 419, 
  "说明": 420, 
  "选举": 421, 
  "确定": 422, 
  "无": 423, 
  "民主": 424, 
  "非常": 425, 
  "1997年": 426, 
  "具有": 427, 
  "过": 428, 
  "支助": 429, 
  "自由": 430, 
  "会员国": 431, 
  "第三": 432, 
  "二": 433, 
  "生活": 434, 
  "谈判": 435, 
  "战略": 436, 
  "曾": 437, 
  "级": 438, 
  "犯罪": 439, 
  "工作组": 440, 
  "起": 441, 
  "武器": 442, 
  "2000年": 443, 
  "虽然": 444, 
  "附件": 445, 
  "过去": 446, 
  "出现": 447, 
  "鼓励": 448, 
  "家庭": 449, 
  "例如": 450, 
  "均": 451, 
  "涉及": 452, 
  "领土": 453, 
  "规则": 454, 
  "产生": 455, 
  "财政": 456, 
  "1999年": 457, 
  "最近": 458, 
  "啊": 459, 
  "企业": 460, 
  "最后": 461, 
  "机制": 462, 
  "培训": 463, 
  "公共": 464, 
  "银行": 465, 
  "上述": 466, 
  "完成": 467, 
  "一般": 468, 
  "联盟": 469, 
  "法庭": 470, 
  "负责": 471, 
  "承诺": 472, 
  "e": 473, 
  "按": 474, 
  "协商": 475, 
  "制定": 476, 
  "特派团": 477, 
  "所以": 478, 
  "四": 479, 
  "地位": 480, 
  "设施": 481, 
  "以来": 482, 
  "并且": 483, 
  "应当": 484, 
  "1995年": 485, 
  "经费": 486, 
  "人道主义": 487, 
  "进展": 488, 
  "如何": 489, 
  "关注": 490, 
  "那么": 491, 
  "仍然": 492, 
  "7": 493, 
  "专员": 494, 
  "分": 495, 
  "事件": 496, 
  "以下": 497, 
  "司法": 498, 
  "适用": 499, 
  "利益": 500, 
  "军事": 501, 
  "1996年": 502, 
  "看": 503, 
  "很多": 504, 
  "以色列": 505, 
  "存在": 506, 
  "台湾": 507, 
  "嗯": 508, 
  "反对": 509, 
  "制订": 510, 
  "之后": 511, 
  "保障": 512, 
  "1994年": 513, 
  "直接": 514, 
  "申请": 515, 
  "完全": 516, 
  "10": 517, 
  "专家": 518, 
  "开展": 519, 
  "稳定": 520, 
  "时候": 521, 
  "报告员": 522, 
  "一切": 523, 
  "符合": 524, 
  "五": 525, 
  "不过": 526, 
  "重申": 527, 
  "形式": 528, 
  "国内": 529, 
  "之前": 530, 
  "资金": 531, 
  "限制": 532, 
  "呼吁": 533, 
  "对于": 534, 
  "协议": 535, 
  "去": 536, 
  "整": 537, 
  "过程": 538, 
  "个人": 539, 
  "咨询": 540, 
  "工程": 541, 
  "结束": 542, 
  "6月": 543, 
  "阶段": 544, 
  "自": 545, 
  "义务": 546, 
  "获": 547, 
  "一致": 548, 
  "2001年": 549, 
  "却": 550, 
  "高级": 551, 
  "歧视": 552, 
  "下列": 553, 
  "实际": 554, 
  "批准": 555, 
  "约": 556, 
  "内容": 557, 
  "增长": 558, 
  "总统": 559, 
  "日本": 560, 
  "独立": 561, 
  "成功": 562, 
  "生产": 563, 
  "评估": 564, 
  "立法": 565, 
  "8": 566, 
  "今年": 567, 
  "事项": 568, 
  "成立": 569, 
  "知道": 570, 
  "非法": 571, 
  "临时": 572, 
  "比": 573, 
  "小": 574, 
  "d": 575, 
  "正式": 576, 
  "收入": 577, 
  "巴勒斯坦": 578, 
  "数据": 579, 
  "法": 580, 
  "那些": 581, 
  "7月": 582, 
  "重新": 583, 
  "相信": 584, 
  "认识": 585, 
  "新闻": 586, 
  "建设": 587, 
  "土地": 588, 
  "某些": 589, 
  "不断": 590, 
  "帮助": 591, 
  "─": 592, 
  "点": 593, 
  "里": 594, 
  "消除": 595, 
  "计划署": 596, 
  "原因": 597, 
  "宣言": 598, 
  "保证": 599, 
  "宣布": 600, 
  "优先": 601, 
  "业务": 602, 
  "做法": 603, 
  "据": 604, 
  "广泛": 605, 
  "金融": 606, 
  "未来": 607, 
  "扩大": 608, 
  "恢复": 609, 
  "因素": 610, 
  "控制": 611, 
  "一直": 612, 
  "言": 613, 
  "局长": 614, 
  "履行": 615, 
  "发表": 616, 
  "给予": 617, 
  "通知": 618, 
  "尽管": 619, 
  "达成": 620, 
  "武装": 621, 
  "经验": 622, 
  "预防": 623, 
  "现有": 624, 
  "岁": 625, 
  "加入": 626, 
  "处": 627, 
  "分析": 628, 
  "发挥": 629, 
  "当": 630, 
  "9月": 631, 
  "集团": 632, 
  "完": 633, 
  "然而": 634, 
  "11月": 635, 
  "收到": 636, 
  "组成": 637, 
  "1993年": 638, 
  "重大": 639, 
  "出": 640, 
  "双方": 641, 
  "谨": 642, 
  "表明": 643, 
  "联系": 644, 
  "暴力": 645, 
  "规划": 646, 
  "访问": 647, 
  "罪行": 648, 
  "了解": 649, 
  "无法": 650, 
  "声明": 651, 
  "尤其": 652, 
  "程度": 653, 
  "警察": 654, 
  "发达": 655, 
  "某": 656, 
  "学校": 657, 
  "10月": 658, 
  "违反": 659, 
  "9": 660, 
  "局势": 661, 
  "交通": 662, 
  "供": 663, 
  "监测": 664, 
  "权力": 665, 
  "框架": 666, 
  "表决": 667, 
  "当地": 668, 
  "明确": 669, 
  "十分": 670, 
  "载": 671, 
  "现时": 672, 
  "章": 673, 
  "承认": 674, 
  "采用": 675, 
  "12": 676, 
  "比较": 677, 
  "动议": 678, 
  "结构": 679, 
  "水平": 680, 
  "空间": 681, 
  "保持": 682, 
  "关切": 683, 
  "困难": 684, 
  "理由": 685, 
  "种族": 686, 
  "十": 687, 
  "健康": 688, 
  "事": 689, 
  "官员": 690, 
  "显示": 691, 
  "5月": 692, 
  "状况": 693, 
  "防止": 694, 
  "工业": 695, 
  "平等": 696, 
  "禁止": 697, 
  "提到": 698, 
  "大家": 699, 
  "第2": 700, 
  "感到": 701, 
  "联邦": 702, 
  "专门": 703, 
  "3月": 704, 
  "用于": 705, 
  "专业": 706, 
  "觉得": 707, 
  "案件": 708, 
  "人们": 709, 
  "卫生": 710, 
  "如下": 711, 
  "s": 712, 
  "--": 713, 
  "指": 714, 
  "发出": 715, 
  "刑事": 716, 
  "日": 717, 
  "公众": 718, 
  "超过": 719, 
  "反映": 720, 
  "精神": 721, 
  "4月": 722, 
  "长期": 723, 
  "管制": 724, 
  "呃": 725, 
  "介绍": 726, 
  "共": 727, 
  "人类": 728, 
  "评价": 729, 
  "准备": 730, 
  "选择": 731, 
  "数字": 732, 
  "贡献": 733, 
  "签署": 734, 
  "解释": 735, 
  "辩论": 736, 
  "单位": 737, 
  "遵守": 738, 
  "社区": 739, 
  "感谢": 740, 
  "人数": 741, 
  "除": 742, 
  "尊重": 743, 
  "什么": 744, 
  "今日": 745, 
  "中央": 746, 
  "就业": 747, 
  "北京": 748, 
  "支付": 749, 
  "民族": 750, 
  "六": 751, 
  "导致": 752, 
  "总": 753, 
  "同样": 754, 
  "另外": 755, 
  "大学": 756, 
  "紧急": 757, 
  "有些": 758, 
  "占": 759, 
  "年度": 760, 
  "现": 761, 
  "进入": 762, 
  "伙伴": 763, 
  "统计": 764, 
  "调整": 765, 
  "设备": 766, 
  "女士": 767, 
  "恐怖主义": 768, 
  "条款": 769, 
  "综合": 770, 
  "俄罗斯": 771, 
  "部长": 772, 
  "训练": 773, 
  "报道": 774, 
  "记录": 775, 
  "议定书": 776, 
  "属": 777, 
  "1月": 778, 
  "经常": 779, 
  "家": 780, 
  "外交": 781, 
  "达到": 782, 
  "推动": 783, 
  "11": 784, 
  "来自": 785, 
  "科学": 786, 
  "去年": 787, 
  "居民": 788, 
  "警方": 789, 
  "威胁": 790, 
  "知识": 791, 
  "提议": 792, 
  "证明": 793, 
  "当时": 794, 
  "核": 795, 
  "裁军": 796, 
  "15": 797, 
  "低": 798, 
  "团体": 799, 
  "加以": 800, 
  "保留": 801, 
  "需求": 802, 
  "公民": 803, 
  "监督": 804, 
  "出席": 805, 
  "分别": 806, 
  "首脑": 807, 
  "科技": 808, 
  "记者": 809, 
  "变化": 810, 
  "宪章": 811, 
  "改变": 812, 
  "英语": 813, 
  "相关": 814, 
  "境内": 815, 
  "实行": 816, 
  "以上": 817, 
  "1日": 818, 
  "尚": 819, 
  "信": 820, 
  "列入": 821, 
  "召开": 822, 
  "看到": 823, 
  "打击": 824, 
  "学生": 825, 
  "首先": 826, 
  "估计": 827, 
  "筹备": 828, 
  "带来": 829, 
  "区": 830, 
  "局": 831, 
  "对话": 832, 
  "更加": 833, 
  "财务": 834, 
  "拥有": 835, 
  "商业": 836, 
  "8月": 837, 
  "从而": 838, 
  "之一": 839, 
  "若干": 840, 
  "题": 841, 
  "第四": 842, 
  "城市": 843, 
  "其实": 844, 
  "除了": 845, 
  "发现": 846, 
  "历史": 847, 
  "开支": 848, 
  "挑战": 849, 
  "普遍": 850, 
  "侵犯": 851, 
  "一样": 852, 
  "事实": 853, 
  "第(": 854, 
  "21": 855, 
  "自然": 856, 
  "英国": 857, 
  "世纪": 858, 
  "性": 859, 
  "成果": 860, 
  "分配": 861, 
  "公平": 862, 
  "条文": 863, 
  "密切": 864, 
  "战争": 865, 
  "请求": 866, 
  "合理": 867, 
  "危险": 868, 
  "重视": 869, 
  "统一": 870, 
  "性别": 871, 
  "公布": 872, 
  "当然": 873, 
  "相互": 874, 
  "论坛": 875, 
  "译文": 876, 
  "第1": 877, 
  "补充": 878, 
  "产品": 879, 
  "针对": 880, 
  "全体": 881, 
  "准则": 882, 
  "回顾": 883, 
  "再次": 884, 
  "拟订": 885, 
  "避免": 886, 
  "一定": 887, 
  "首": 888, 
  "本身": 889, 
  "价值": 890, 
  "指导": 891, 
  "还是": 892, 
  "运作": 893, 
  "第3": 894, 
  "20": 895, 
  "14": 896, 
  "部": 897, 
  "甚至": 898, 
  "外国": 899, 
  "权": 900, 
  "大量": 901, 
  "13": 902, 
  "损失": 903, 
  "议会": 904, 
  "由於": 905, 
  "出口": 906, 
  "药物": 907, 
  "予以": 908, 
  "地点": 909, 
  "日期": 910, 
  "危机": 911, 
  "问": 912, 
  "引起": 913, 
  "授权": 914, 
  "车辆": 915, 
  "领导": 916, 
  "旨": 917, 
  "法官": 918, 
  "述": 919, 
  "保健": 920, 
  "基金会": 921, 
  "关键": 922, 
  "修正案": 923, 
  "成员国": 924, 
  "下午": 925, 
  "担任": 926, 
  "纲领": 927, 
  "宣传": 928, 
  "合同": 929, 
  "重点": 930, 
  "内部": 931, 
  "面临": 932, 
  "迅速": 933, 
  "！": 934, 
  "非政府": 935, 
  "举办": 936, 
  "主任": 937, 
  "清楚": 938, 
  "18": 939, 
  "手段": 940, 
  "开放": 941, 
  "倡议": 942, 
  "达": 943, 
  "数目": 944, 
  "2月": 945, 
  "承担": 946, 
  "机关": 947, 
  "编制": 948, 
  "详细": 949, 
  "劳工": 950, 
  "运动": 951, 
  "法例": 952, 
  "国际法": 953, 
  "公开": 954, 
  "索赔": 955, 
  "以前": 956, 
  "现象": 957, 
  "传统": 958, 
  "发言人": 959, 
  "立法会": 960, 
  "长": 961, 
  "改进": 962, 
  "亚洲": 963, 
  "公务员": 964, 
  "赔偿": 965, 
  "文书": 966, 
  "电子": 967, 
  "立场": 968, 
  "飞机": 969, 
  "律师": 970, 
  "运输": 971, 
  "刚才": 972, 
  "价格": 973, 
  "从事": 974, 
  "资助": 975, 
  "愿意": 976, 
  "总部": 977, 
  "核武器": 978, 
  "缺乏": 979, 
  "16": 980, 
  "有助于": 981, 
  "提案": 982, 
  "只有": 983, 
  "全部": 984, 
  "党": 985, 
  "课程": 986, 
  "委员": 987, 
  "赞成": 988, 
  "真正": 989, 
  "网络": 990, 
  "证据": 991, 
  "缔约方": 992, 
  "顾问": 993, 
  "今后": 994, 
  "医疗": 995, 
  "计算": 996, 
  "阿拉伯": 997, 
  "2002年": 998, 
  "经过": 999, 
  "员额": 1000, 
  "交流": 1001, 
  "50": 1002, 
  "确认": 1003, 
  "编写": 1004, 
  "性质": 1005, 
  "贫穷": 1006, 
  "医院": 1007, 
  "意义": 1008, 
  "立即": 1009, 
  "少数": 1010, 
  "有限": 1011, 
  "足够": 1012, 
  "不仅": 1013, 
  "竞争": 1014, 
  "检讨": 1015, 
  "本人": 1016, 
  "法国": 1017, 
  "表": 1018, 
  "数": 1019, 
  "雇员": 1020, 
  "伊朗": 1021, 
  "成本": 1022, 
  "定期": 1023, 
  "纳入": 1024, 
  "财产": 1025, 
  "材料": 1026, 
  "结论": 1027, 
  "领导人": 1028, 
  "重要性": 1029, 
  "印度": 1030, 
  "私人": 1031, 
  "步骤": 1032, 
  "设计": 1033, 
  "发": 1034, 
  "阿富汗": 1035, 
  "农业": 1036, 
  "注册": 1037, 
  "享有": 1038, 
  "一起": 1039, 
  "构成": 1040, 
  "登记": 1041, 
  "观察员": 1042, 
  "案": 1043, 
  "卢旺达": 1044, 
  "美": 1045, 
  "如此": 1046, 
  "粮食": 1047, 
  "或者": 1048, 
  "以后": 1049, 
  "协会": 1050, 
  "修改": 1051, 
  "生效": 1052, 
  "17": 1053, 
  "第五": 1054, 
  "体制": 1055, 
  "宗": 1056, 
  "宗教": 1057, 
  "私营": 1058, 
  "投票": 1059, 
  "1992年": 1060, 
  "制裁": 1061, 
  "i": 1062, 
  "人力": 1063, 
  "占领": 1064, 
  "科索沃": 1065, 
  "创造": 1066, 
  "表现": 1067, 
  "破坏": 1068, 
  "命令": 1069, 
  "概念": 1070, 
  "反应": 1071, 
  "文": 1072, 
  "跟": 1073, 
  "科威特": 1074, 
  "资产": 1075, 
  "30日": 1076, 
  "行使": 1077, 
  "工人": 1078, 
  "机场": 1079, 
  "其它": 1080, 
  "资格": 1081, 
  "内地": 1082, 
  "少": 1083, 
  "最终": 1084, 
  "允许": 1085, 
  "称": 1086, 
  "集中": 1087, 
  "流离失所": 1088, 
  "第4": 1089, 
  "若": 1090, 
  "话": 1091, 
  "满足": 1092, 
  "水": 1093, 
  "驻": 1094, 
  "议案": 1095, 
  "土著": 1096, 
  "大陆": 1097, 
  "2000": 1098, 
  "南斯拉夫": 1099, 
  "多边": 1100, 
  "极": 1101, 
  "指数": 1102, 
  "能源": 1103, 
  "上诉": 1104, 
  "相当": 1105, 
  "宪法": 1106, 
  "批": 1107, 
  "邀请": 1108, 
  "满意": 1109, 
  "损害": 1110, 
  "道路": 1111, 
  "办公室": 1112, 
  "书面": 1113, 
  "态度": 1114, 
  "转让": 1115, 
  "重建": 1116, 
  "推行": 1117, 
  "套": 1118, 
  "'": 1119, 
  "1998": 1120, 
  "明显": 1121, 
  "电": 1122, 
  "落实": 1123, 
  "列": 1124, 
  "根本": 1125, 
  "鉴于": 1126, 
  "31日": 1127, 
  "代": 1128, 
  "公告": 1129, 
  "提及": 1130, 
  "寻求": 1131, 
  "波斯尼亚": 1132, 
  "死亡": 1133, 
  "自愿": 1134, 
  "债务": 1135, 
  "最高": 1136, 
  "日益": 1137, 
  "分发": 1138, 
  "来源": 1139, 
  "加拿大": 1140, 
  "系列": 1141, 
  "群体": 1142, 
  "货币": 1143, 
  "职能": 1144, 
  "节": 1145, 
  "过渡": 1146, 
  "答覆": 1147, 
  "谘询": 1148, 
  "效率": 1149, 
  "良好": 1150, 
  "19": 1151, 
  "供应": 1152, 
  "特殊": 1153, 
  "起来": 1154, 
  "为止": 1155, 
  "即使": 1156, 
  "属于": 1157, 
  "面对": 1158, 
  "扩散": 1159, 
  "30": 1160, 
  "经营": 1161, 
  "趋势": 1162, 
  "理解": 1163, 
  "德国": 1164, 
  "部署": 1165, 
  "艾滋病": 1166, 
  "福利": 1167, 
  "贸发": 1168, 
  "任命": 1169, 
  "数额": 1170, 
  "日内瓦": 1171, 
  "然后": 1172, 
  "有所": 1173, 
  "平均": 1174, 
  "展开": 1175, 
  "指定": 1176, 
  "高度": 1177, 
  "敦促": 1178, 
  "上午": 1179, 
  "停止": 1180, 
  "似乎": 1181, 
  "实际上": 1182, 
  "24": 1183, 
  "读": 1184, 
  "双边": 1185, 
  "国民": 1186, 
  "工具": 1187, 
  "拒绝": 1188, 
  "青年": 1189, 
  "平民": 1190, 
  "1999": 1191, 
  "为何": 1192, 
  "森林": 1193, 
  "以外": 1194, 
  "f": 1195, 
  "公正": 1196, 
  "透过": 1197, 
  "大多数": 1198, 
  "维护": 1199, 
  "审计": 1200, 
  "指示": 1201, 
  "主管": 1202, 
  "副主席": 1203, 
  "越来越": 1204, 
  "署长": 1205, 
  "时期": 1206, 
  "讲": 1207, 
  "下降": 1208, 
  "观点": 1209, 
  "应付": 1210, 
  "职业": 1211, 
  "应用": 1212, 
  "刚果": 1213, 
  "返回": 1214, 
  "七": 1215, 
  "职责": 1216, 
  "太": 1217, 
  "争取": 1218, 
  "预期": 1219, 
  "仅": 1220, 
  "交易": 1221, 
  "主题": 1222, 
  "个案": 1223, 
  "管理局": 1224, 
  "长官": 1225, 
  "看法": 1226, 
  "受害者": 1227, 
  "大约": 1228, 
  "整体": 1229, 
  "像": 1230, 
  "主权": 1231, 
  "雇主": 1232, 
  "场": 1233, 
  "依照": 1234, 
  "定": 1235, 
  "类似": 1236, 
  "后续": 1237, 
  "赞赏": 1238, 
  "非正式": 1239, 
  "25": 1240, 
  "王国": 1241, 
  "电话": 1242, 
  "现行": 1243, 
  "不足": 1244, 
  "53": 1245, 
  "主持": 1246, 
  "贷款": 1247, 
  "捐助": 1248, 
  "检查": 1249, 
  "尽快": 1250, 
  "传播": 1251, 
  "第5": 1252, 
  "数量": 1253, 
  "上升": 1254, 
  "预计": 1255, 
  "52": 1256, 
  "农村": 1257, 
  "九": 1258, 
  "的话": 1259, 
  "核准": 1260, 
  "本地": 1261, 
  "新华社": 1262, 
  "答复": 1263, 
  "古巴": 1264, 
  "出来": 1265, 
  "件": 1266, 
  "行业": 1267, 
  "何": 1268, 
  "1990年": 1269, 
  "大部分": 1270, 
  "地雷": 1271, 
  "1991年": 1272, 
  "款项": 1273, 
  "污染": 1274, 
  "实质性": 1275, 
  "纽约": 1276, 
  "23": 1277, 
  "男子": 1278, 
  "压力": 1279, 
  "不少": 1280, 
  "第6": 1281, 
  "质量": 1282, 
  "房屋": 1283, 
  "支出": 1284, 
  "22": 1285, 
  "收费": 1286, 
  "54": 1287, 
  "底": 1288, 
  "观察团": 1289, 
  "15日": 1290, 
  "事实上": 1291, 
  "之外": 1292, 
  "$": 1293, 
  "51": 1294, 
  "前往": 1295, 
  "省": 1296, 
  "八": 1297, 
  "取消": 1298, 
  "可否": 1299, 
  "小时": 1300, 
  "指标": 1301, 
  "修正": 1302, 
  "设": 1303, 
  "高兴": 1304, 
  "收集": 1305, 
  "告知": 1306, 
  "安哥拉": 1307, 
  "巴基斯坦": 1308, 
  "甚么": 1309, 
  "职位": 1310, 
  "成": 1311, 
  "定义": 1312, 
  "当中": 1313, 
  "科": 1314, 
  "拨款": 1315, 
  "2001": 1316, 
  "至少": 1317, 
  "予": 1318, 
  "身份": 1319, 
  "媒体": 1320, 
  "平衡": 1321, 
  "负担": 1322, 
  "全球化": 1323, 
  "既": 1324, 
  "方向": 1325, 
  "具": 1326, 
  "海洋": 1327, 
  "这里": 1328, 
  "近": 1329, 
  "审判": 1330, 
  "j": 1331, 
  "磋商": 1332, 
  "1997": 1333, 
  "生物": 1334, 
  "第7": 1335, 
  "坚持": 1336, 
  "早": 1337, 
  "复杂": 1338, 
  "先": 1339, 
  "土耳其": 1340, 
  "规例": 1341, 
  "民间": 1342, 
  "后果": 1343, 
  "延长": 1344, 
  "东帝汶": 1345, 
  "建筑": 1346, 
  "外地": 1347, 
  "议题": 1348, 
  "卫星": 1349, 
  "诉讼": 1350, 
  "代理": 1351, 
  "在内": 1352, 
  "49": 1353, 
  "55": 1354, 
  "至於": 1355, 
  "显然": 1356, 
  "将来": 1357, 
  "伊斯兰": 1358, 
  "合法": 1359, 
  "事情": 1360, 
  "总理": 1361, 
  "贫困": 1362, 
  "000": 1363, 
  "比例": 1364, 
  "提请": 1365, 
  "促请": 1366, 
  "力量": 1367, 
  "石油": 1368, 
  "依据": 1369, 
  "特区": 1370, 
  "学习": 1371, 
  "评论": 1372, 
  "通常": 1373, 
  "值得": 1374, 
  "视为": 1375, 
  "会谈": 1376, 
  "官方": 1377, 
  "南非": 1378, 
  "往往": 1379, 
  "货物": 1380, 
  "／": 1381, 
  "移民": 1382, 
  "资讯": 1383, 
  "决心": 1384, 
  "个别": 1385, 
  "附属": 1386, 
  "打算": 1387, 
  "中东": 1388, 
  "接触": 1389, 
  "用途": 1390, 
  "严格": 1391, 
  "障碍": 1392, 
  "分子": 1393, 
  "回应": 1394, 
  "会见": 1395, 
  "决策": 1396, 
  "票": 1397, 
  "岸": 1398, 
  "拘留": 1399, 
  "钱": 1400, 
  "除非": 1401, 
  "周": 1402, 
  "克罗地亚": 1403, 
  "所谓": 1404, 
  "难": 1405, 
  "消息": 1406, 
  "捐款": 1407, 
  "初步": 1408, 
  "意识": 1409, 
  "指明": 1410, 
  "制造": 1411, 
  "津贴": 1412, 
  "额外": 1413, 
  "特设": 1414, 
  "载有": 1415, 
  "确实": 1416, 
  "遭受": 1417, 
  "遗憾": 1418, 
  "名单": 1419, 
  "不论": 1420, 
  "多少": 1421, 
  "汽车": 1422, 
  "快": 1423, 
  "实体": 1424, 
  "基本法": 1425, 
  "核心": 1426, 
  "p": 1427, 
  "议事": 1428, 
  "48": 1429, 
  "吗": 1430, 
  "大规模": 1431, 
  "海地": 1432, 
  "保险": 1433, 
  "巨大": 1434, 
  "住房": 1435, 
  "兴趣": 1436, 
  "相同": 1437, 
  "强烈": 1438, 
  "她们": 1439, 
  "关心": 1440, 
  "南部": 1441, 
  "商品": 1442, 
  "大使": 1443, 
  "赞同": 1444, 
  "26": 1445, 
  "铁路": 1446, 
  "星期三": 1447, 
  "一点": 1448, 
  "委任": 1449, 
  "节目": 1450, 
  "期限": 1451, 
  "立法局": 1452, 
  "肯定": 1453, 
  "无论": 1454, 
  "风险": 1455, 
  "友好": 1456, 
  "苏丹": 1457, 
  "专题": 1458, 
  "毒品": 1459, 
  "笔": 1460, 
  "购买": 1461, 
  "及时": 1462, 
  "曾经": 1463, 
  "组": 1464, 
  "进口": 1465, 
  "正常": 1466, 
  "台": 1467, 
  "正确": 1468, 
  "愿": 1469, 
  "年龄": 1470, 
  "指控": 1471, 
  "27": 1472, 
  "配合": 1473, 
  "容易": 1474, 
  "执法": 1475, 
  "总额": 1476, 
  "通讯": 1477, 
  "切实": 1478, 
  "40": 1479, 
  "凡": 1480, 
  "只要": 1481, 
  "the": 1482, 
  "__": 1483, 
  "不得": 1484, 
  "概算": 1485, 
  "采购": 1486, 
  "因而": 1487, 
  "体系": 1488, 
  "变": 1489, 
  "关於": 1490, 
  "司长": 1491, 
  "期望": 1492, 
  "救济": 1493, 
  "您": 1494, 
  "旅游": 1495, 
  "这么": 1496, 
  "六月": 1497, 
  "民众": 1498, 
  "几乎": 1499, 
  "军队": 1500, 
  "现实": 1501, 
  "持久": 1502, 
  "海关": 1503, 
  "信任": 1504, 
  "七月": 1505, 
  "模式": 1506, 
  "欧盟": 1507, 
  "中期": 1508, 
  "研究所": 1509, 
  "尽量": 1510, 
  "总督": 1511, 
  "商定": 1512, 
  "不利": 1513, 
  "表达": 1514, 
  "…": 1515, 
  "医生": 1516, 
  "行": 1517, 
  "秘书": 1518, 
  "维也纳": 1519, 
  "预测": 1520, 
  "法案": 1521, 
  "更为": 1522, 
  "1994": 1523, 
  "待遇": 1524, 
  "攻击": 1525, 
  "28": 1526, 
  "唯一": 1527, 
  "交换": 1528, 
  "附表": 1529, 
  "致辞": 1530, 
  "规模": 1531, 
  "可行": 1532, 
  "任": 1533, 
  "路": 1534, 
  "赞扬": 1535, 
  "教师": 1536, 
  "那样": 1537, 
  "象": 1538, 
  "监察": 1539, 
  "即将": 1540, 
  "遭到": 1541, 
  "1996": 1542, 
  "集体": 1543, 
  "最後": 1544, 
  "居住": 1545, 
  "成就": 1546, 
  "20日": 1547, 
  "放": 1548, 
  "56": 1549, 
  "订正": 1550, 
  "原子能": 1551, 
  "认真": 1552, 
  "一下": 1553, 
  "g": 1554, 
  "证实": 1555, 
  "工资": 1556, 
  "12日": 1557, 
  "贩运": 1558, 
  "否则": 1559, 
  "深入": 1560, 
  "讲习班": 1561, 
  "第六": 1562, 
  "加上": 1563, 
  "滥用": 1564, 
  "生命": 1565, 
  "电脑": 1566, 
  "海外": 1567, 
  "没": 1568, 
  "研讨会": 1569, 
  "各自": 1570, 
  "23日": 1571, 
  "尤其是": 1572, 
  "三月": 1573, 
  "当前": 1574, 
  "四月": 1575, 
  "千": 1576, 
  "基于": 1577, 
  "电视": 1578, 
  "加勒比": 1579, 
  "美利坚": 1580, 
  "合众国": 1581, 
  "第8": 1582, 
  "原": 1583, 
  "流动": 1584, 
  "减轻": 1585, 
  "主动": 1586, 
  "市": 1587, 
  "14日": 1588, 
  "澳大利亚": 1589, 
  "十月": 1590, 
  "星期": 1591, 
  "和解": 1592, 
  "男女": 1593, 
  "联络": 1594, 
  "-@@": 1595, 
  "墨西哥": 1596, 
  "事业": 1597, 
  "事宜": 1598, 
  ",": 1599, 
  "斗争": 1600, 
  "上海": 1601, 
  "飞行": 1602, 
  "吧": 1603, 
  "周年": 1604, 
  "途径": 1605, 
  "意外": 1606, 
  "处长": 1607, 
  "形成": 1608, 
  "巴西": 1609, 
  "有利": 1610, 
  "投入": 1611, 
  "物品": 1612, 
  "离开": 1613, 
  "16日": 1614, 
  "一九九九年": 1615, 
  "航空": 1616, 
  "支援": 1617, 
  "21日": 1618, 
  "照顾": 1619, 
  "1995": 1620, 
  "争端": 1621, 
  "协调员": 1622, 
  "共同体": 1623, 
  "of": 1624, 
  "强": 1625, 
  "青少年": 1626, 
  "上文": 1627, 
  "10日": 1628, 
  "黎巴嫩": 1629, 
  "22日": 1630, 
  "得以": 1631, 
  "思想": 1632, 
  "灾害": 1633, 
  "你们": 1634, 
  "楼宇": 1635, 
  "九月": 1636, 
  "语文": 1637, 
  "边界": 1638, 
  "子女": 1639, 
  "埃及": 1640, 
  "报": 1641, 
  "多数": 1642, 
  "ii": 1643, 
  "页": 1644, 
  "助理": 1645, 
  "藉": 1646, 
  "极为": 1647, 
  "17日": 1648, 
  "职务": 1649, 
  "谴责": 1650, 
  "后来": 1651, 
  "100": 1652, 
  "巩固": 1653, 
  "29": 1654, 
  "印度尼西亚": 1655, 
  "财政司": 1656, 
  "之下": 1657, 
  "随后": 1658, 
  "例子": 1659, 
  "帐户": 1660, 
  "处于": 1661, 
  "袭击": 1662, 
  "星期五": 1663, 
  "方针": 1664, 
  "意味": 1665, 
  "五月": 1666, 
  "拟议": 1667, 
  "手": 1668, 
  "完整": 1669, 
  "候选人": 1670, 
  "最佳": 1671, 
  "酷刑": 1672, 
  "起诉": 1673, 
  "11日": 1674, 
  "怀疑": 1675, 
  "投诉": 1676, 
  "特定": 1677, 
  "功能": 1678, 
  "吁请": 1679, 
  "物质": 1680, 
  "布什": 1681, 
  "32": 1682, 
  "信心": 1683, 
  "告诉": 1684, 
  "推广": 1685, 
  "一月": 1686, 
  "28日": 1687, 
  "派": 1688, 
  "难以": 1689, 
  "加": 1690, 
  "资本": 1691, 
  "与会者": 1692, 
  "增强": 1693, 
  "涉": 1694, 
  "背景": 1695, 
  "合约": 1696, 
  "星期一": 1697, 
  "随着": 1698, 
  "附近": 1699, 
  "罪": 1700, 
  "35": 1701, 
  "词": 1702, 
  "透明度": 1703, 
  "太平洋": 1704, 
  "一般性": 1705, 
  "订立": 1706, 
  "绝对": 1707, 
  "18日": 1708, 
  "进步": 1709, 
  "找到": 1710, 
  "类别": 1711, 
  "逐步": 1712, 
  "种族主义": 1713, 
  "失业": 1714, 
  "治疗": 1715, 
  "初": 1716, 
  "出版物": 1717, 
  "31": 1718, 
  "19日": 1719, 
  "空气": 1720, 
  "消费": 1721, 
  "之中": 1722, 
  "步": 1723, 
  "恶化": 1724, 
  "可能性": 1725, 
  "查明": 1726, 
  "规划署": 1727, 
  "怎么": 1728, 
  "结合": 1729, 
  "澄清": 1730, 
  "架": 1731, 
  "拉丁美洲": 1732, 
  "便利": 1733, 
  "提醒": 1734, 
  "2002": 1735, 
  "谈": 1736, 
  "意大利": 1737, 
  "朝鲜": 1738, 
  "同事": 1739, 
  "提": 1740, 
  "出版": 1741, 
  "直": 1742, 
  "听取": 1743, 
  "法定": 1744, 
  "做出": 1745, 
  "罚款": 1746, 
  "9日": 1747, 
  "彻底": 1748, 
  "33": 1749, 
  "索马里": 1750, 
  "英": 1751, 
  "塞拉利昂": 1752, 
  "住": 1753, 
  "付诸": 1754, 
  "效力": 1755, 
  "角度": 1756, 
  "诸如": 1757, 
  "在于": 1758, 
  "25日": 1759, 
  "秩序": 1760, 
  "第9": 1761, 
  "移徙": 1762, 
  "施政": 1763, 
  "清单": 1764, 
  "紧张": 1765, 
  "第10": 1766, 
  "质素": 1767, 
  "牌照": 1768, 
  "国籍": 1769, 
  "降低": 1770, 
  "cn.4": 1771, 
  "任期": 1772, 
  "船舶": 1773, 
  "自治": 1774, 
  "知": 1775, 
  "通信": 1776, 
  "巴士": 1777, 
  "疾病": 1778, 
  "截至": 1779, 
  "语言": 1780, 
  "豁免": 1781, 
  "小型": 1782, 
  "增进": 1783, 
  "监管": 1784, 
  "探讨": 1785, 
  "消费者": 1786, 
  "34": 1787, 
  "详情": 1788, 
  "致力于": 1789, 
  "6日": 1790, 
  "60": 1791, 
  "常驻": 1792, 
  "4日": 1793, 
  "尽可能": 1794, 
  "维修": 1795, 
  "监狱": 1796, 
  "担心": 1797, 
  "大大": 1798, 
  "气候": 1799, 
  "时代": 1800, 
  "讨论会": 1801, 
  "付款": 1802, 
  "案文": 1803, 
  "口头": 1804, 
  "制止": 1805, 
  "广播": 1806, 
  "为什么": 1807, 
  "意愿": 1808, 
  "27日": 1809, 
  "纪录": 1810, 
  "心理": 1811, 
  "适应": 1812, 
  "26日": 1813, 
  "十二月": 1814, 
  "实质": 1815, 
  "干预": 1816, 
  "共识": 1817, 
  "相": 1818, 
  "谢谢": 1819, 
  "句": 1820, 
  "8日": 1821, 
  "信托": 1822, 
  "回答": 1823, 
  "相对": 1824, 
  "以往": 1825, 
  "答": 1826, 
  "add.1": 1827, 
  "股": 1828, 
  "赋予": 1829, 
  "布隆迪": 1830, 
  "证券": 1831, 
  "2日": 1832, 
  "艾滋病毒": 1833, 
  "认可": 1834, 
  "效益": 1835, 
  "3日": 1836, 
  "45": 1837, 
  "13日": 1838, 
  "检察官": 1839, 
  "团结": 1840, 
  "跨国": 1841, 
  "十一月": 1842, 
  "设法": 1843, 
  "质询": 1844, 
  "近年": 1845, 
  "简单": 1846, 
  "兴建": 1847, 
  "侵略": 1848, 
  "36": 1849, 
  "学院": 1850, 
  "谁": 1851, 
  "书": 1852, 
  "短期": 1853, 
  "张": 1854, 
  "相应": 1855, 
  "晚上": 1856, 
  "实在": 1857, 
  "促使": 1858, 
  "总值": 1859, 
  "恐怖": 1860, 
  "网": 1861, 
  "迄今": 1862, 
  "起草": 1863, 
  "老人": 1864, 
  "常规": 1865, 
  "分钟": 1866, 
  "讲话": 1867, 
  "24日": 1868, 
  "女": 1869, 
  "装置": 1870, 
  "乌克兰": 1871, 
  "j.p": 1872, 
  "补偿": 1873, 
  "半": 1874, 
  "吸引": 1875, 
  "销售": 1876, 
  "建造": 1877, 
  "基地": 1878, 
  "当事": 1879, 
  "遇到": 1880, 
  "试验": 1881, 
  "站": 1882, 
  "酌情": 1883, 
  "判决": 1884, 
  "规约": 1885, 
  "制": 1886, 
  "29日": 1887, 
  "阿根廷": 1888, 
  "工程处": 1889, 
  "现场": 1890, 
  "入境": 1891, 
  "星期四": 1892, 
  "取代": 1893, 
  "主席团": 1894, 
  "形势": 1895, 
  "大@@": 1896, 
  "剥夺": 1897, 
  "暂停": 1898, 
  "顺利": 1899, 
  "连": 1900, 
  "病人": 1901, 
  "以期": 1902, 
  "成绩": 1903, 
  "创新": 1904, 
  "走": 1905, 
  "面前": 1906, 
  "有利于": 1907, 
  "食物": 1908, 
  "执行局": 1909, 
  "5日": 1910, 
  "导弹": 1911, 
  "解除": 1912, 
  "转移": 1913, 
  "最新": 1914, 
  "逮捕": 1915, 
  "看来": 1916, 
  "57": 1917, 
  "至关": 1918, 
  "越南": 1919, 
  "载于": 1920, 
  "一旦": 1921, 
  "司": 1922, 
  "证书": 1923, 
  "利比里亚": 1924, 
  "至今": 1925, 
  "坚决": 1926, 
  "使得": 1927, 
  "米": 1928, 
  "叙利亚": 1929, 
  "用户": 1930, 
  "外汇": 1931, 
  "废除": 1932, 
  "合并": 1933, 
  "37": 1934, 
  "7日": 1935, 
  "裁决": 1936, 
  "77": 1937, 
  "为期": 1938, 
  "普通": 1939, 
  "星期二": 1940, 
  "放弃": 1941, 
  "加快": 1942, 
  "筹资": 1943, 
  "退休": 1944, 
  "38": 1945, 
  "纪念": 1946, 
  "八月": 1947, 
  "劳动": 1948, 
  "头": 1949, 
  "装备": 1950, 
  "辆": 1951, 
  "惩罚": 1952, 
  "危害": 1953, 
  "享受": 1954, 
  "楼": 1955, 
  "废物": 1956, 
  "监禁": 1957, 
  "今": 1958, 
  "员工": 1959, 
  "参考": 1960, 
  "h": 1961, 
  "妨碍": 1962, 
  "批评": 1963, 
  "角色": 1964, 
  "度": 1965, 
  "前景": 1966, 
  "教授": 1967, 
  "塞浦路斯": 1968, 
  "理想": 1969, 
  "阁下": 1970, 
  "荷兰": 1971, 
  "明白": 1972, 
  "策略": 1973, 
  "拟": 1974, 
  "工作队": 1975, 
  "事务部": 1976, 
  "42": 1977, 
  "限": 1978, 
  "车": 1979, 
  "发射": 1980, 
  "删去": 1981, 
  "查询": 1982, 
  "核查": 1983, 
  "常设": 1984, 
  "长远": 1985, 
  "依": 1986, 
  "筹措": 1987, 
  "方便": 1988, 
  "明年": 1989, 
  "特点": 1990, 
  "改为": 1991, 
  "第48": 1992, 
  "繁荣": 1993, 
  "容忍": 1994, 
  "免费": 1995, 
  "47": 1996, 
  "远": 1997, 
  "公里": 1998, 
  "体现": 1999, 
  "列出": 2000, 
  "订": 2001, 
  "父母": 2002, 
  "大型": 2003, 
  "哪些": 2004, 
  "柬埔寨": 2005, 
  "哥伦比亚": 2006, 
  "39": 2007, 
  "缴付": 2008, 
  "中共": 2009, 
  "名义": 2010, 
  "主张": 2011, 
  "世贸": 2012, 
  "事务处": 2013, 
  "表格": 2014, 
  "西非": 2015, 
  "出售": 2016, 
  "可是": 2017, 
  "掌握": 2018, 
  "申请人": 2019, 
  "之後": 2020, 
  "陈水扁": 2021, 
  "伤害": 2022, 
  "最低": 2023, 
  "雇用": 2024, 
  "200": 2025, 
  "租金": 2026, 
  "中华": 2027, 
  "订明": 2028, 
  "阻碍": 2029, 
  "错误": 2030, 
  "图": 2031, 
  "44": 2032, 
  "公路": 2033, 
  "效果": 2034, 
  "生": 2035, 
  "突出": 2036, 
  "生态": 2037, 
  "下来": 2038, 
  "市政局": 2039, 
  "原来": 2040, 
  "法令": 2041, 
  "埃塞俄比亚": 2042, 
  "人才": 2043, 
  "下跌": 2044, 
  "第11": 2045, 
  "也许": 2046, 
  "视": 2047, 
  "船只": 2048, 
  "毫": 2049, 
  "来文": 2050, 
  "速度": 2051, 
  "宗旨": 2052, 
  "地球": 2053, 
  "46": 2054, 
  "受伤": 2055, 
  "孩子": 2056, 
  "打": 2057, 
  "企图": 2058, 
  "印发": 2059, 
  "情报": 2060, 
  "政党": 2061, 
  "43": 2062, 
  "优惠": 2063, 
  "谈到": 2064, 
  "位置": 2065, 
  "哪": 2066, 
  "建筑物": 2067, 
  "运用": 2068, 
  "只是": 2069, 
  "当选": 2070, 
  "华": 2071, 
  "东西": 2072, 
  "遣返": 2073, 
  "亚太": 2074, 
  "and": 2075, 
  "单独": 2076, 
  "名称": 2077, 
  "专家组": 2078, 
  "季": 2079, 
  "状态": 2080, 
  "祝贺": 2081, 
  "依赖": 2082, 
  "且": 2083, 
  "证人": 2084, 
  "次级": 2085, 
  "薪酬": 2086, 
  "尽": 2087, 
  "残疾": 2088, 
  "补救": 2089, 
  "暂时": 2090, 
  "有否": 2091, 
  "倍": 2092, 
  "终止": 2093, 
  "外部": 2094, 
  "贩卖": 2095, 
  "41": 2096, 
  "新西兰": 2097, 
  "选民": 2098, 
  "支": 2099, 
  "调动": 2100, 
  "申诉": 2101, 
  "虐待": 2102, 
  "外交部": 2103, 
  "技能": 2104, 
  "二月": 2105, 
  "那里": 2106, 
  "西班牙": 2107, 
  "补编": 2108, 
  "适合": 2109, 
  "转变": 2110, 
  "权益": 2111, 
  "凤凰": 2112, 
  "好处": 2113, 
  "黑塞哥维那": 2114, 
  "字": 2115, 
  "够": 2116, 
  "第14": 2117, 
  "公屋": 2118, 
  "界定": 2119, 
  "泰国": 2120, 
  "计": 2121, 
  "削减": 2122, 
  "拟定": 2123, 
  "提名": 2124, 
  "通报": 2125, 
  "选出": 2126, 
  "电影": 2127, 
  "＊": 2128, 
  "挪威": 2129, 
  "南": 2130, 
  "＂": 2131, 
  "新加坡": 2132, 
  "江泽民": 2133, 
  "带": 2134, 
  "声称": 2135, 
  "破产": 2136, 
  "事态": 2137, 
  "真的": 2138, 
  "举手": 2139, 
  "职权": 2140, 
  "战斗": 2141, 
  "收益": 2142, 
  "工发": 2143, 
  "确立": 2144, 
  "增补": 2145, 
  "被告": 2146, 
  "致力": 2147, 
  "式": 2148, 
  "海": 2149, 
  "事故": 2150, 
  "住区": 2151, 
  "第12": 2152, 
  "第七": 2153, 
  "谅解": 2154, 
  "感": 2155, 
  "第50": 2156, 
  "艺术": 2157, 
  "观察": 2158, 
  "朋友": 2159, 
  "遭": 2160, 
  "失踪": 2161, 
  "下去": 2162, 
  "女性": 2163, 
  "投资者": 2164, 
  "管辖权": 2165, 
  "行政区": 2166, 
  "持有": 2167, 
  "轮": 2168, 
  "业主": 2169, 
  "美洲": 2170, 
  "怎样": 2171, 
  "二○○○年": 2172, 
  "非统": 2173, 
  "菲律宾": 2174, 
  "优势": 2175, 
  "颁布": 2176, 
  "设置": 2177, 
  "五十": 2178, 
  "开": 2179, 
  "排除": 2180, 
  "仲裁": 2181, 
  "港元": 2182, 
  "无须": 2183, 
  "陈辞": 2184, 
  "互相": 2185, 
  "分摊": 2186, 
  "英文": 2187, 
  "爆炸": 2188, 
  "面积": 2189, 
  "一日": 2190, 
  "韩国": 2191, 
  "法治": 2192, 
  "逐渐": 2193, 
  "全委会": 2194, 
  "一体化": 2195, 
  "左右": 2196, 
  "测试": 2197, 
  "胡锦涛": 2198, 
  "称为": 2199, 
  "外层": 2200, 
  "推迟": 2201, 
  "1993": 2202, 
  "地理": 2203, 
  "盟约": 2204, 
  "阶层": 2205, 
  "现代": 2206, 
  "一九九八年": 2207, 
  "单": 2208, 
  "克服": 2209, 
  "教学": 2210, 
  "经历": 2211, 
  "接近": 2212, 
  "自从": 2213, 
  "越": 2214, 
  "惯例": 2215, 
  "基本上": 2216, 
  "设想": 2217, 
  "1989年": 2218, 
  "架构": 2219, 
  "有时": 2220, 
  "用品": 2221, 
  "二十": 2222, 
  "重复": 2223, 
  "建设性": 2224, 
  "操作": 2225, 
  "安置": 2226, 
  "瑞典": 2227, 
  "地带": 2228, 
  "差距": 2229, 
  "派遣": 2230, 
  "住宅": 2231, 
  "花": 2232, 
  "访": 2233, 
  "管辖": 2234, 
  "易": 2235, 
  "单方面": 2236, 
  "道": 2237, 
  "数据库": 2238, 
  "化学": 2239, 
  "二○○一年": 2240, 
  "潜力": 2241, 
  "总数": 2242, 
  "药品": 2243, 
  "旅行": 2244, 
  "随时": 2245, 
  "昨天": 2246, 
  "不久": 2247, 
  "文明": 2248, 
  "备忘录": 2249, 
  "边": 2250, 
  "瑞士": 2251, 
  "待": 2252, 
  "言论": 2253, 
  "变成": 2254, 
  "许可证": 2255, 
  "国务院": 2256, 
  "乌干达": 2257, 
  "相反": 2258, 
  "乘客": 2259, 
  "之内": 2260, 
  "民政": 2261, 
  "指南": 2262, 
  "愿望": 2263, 
  "北部": 2264, 
  "现金": 2265, 
  "小岛屿": 2266, 
  "二○○二年": 2267, 
  "具备": 2268, 
  "国别": 2269, 
  "发布": 2270, 
  "纲要": 2271, 
  "死刑": 2272, 
  "第13": 2273, 
  "显著": 2274, 
  "新界": 2275, 
  "观念": 2276, 
  "金": 2277, 
  "说法": 2278, 
  "对付": 2279, 
  "例外": 2280, 
  "预算案": 2281, 
  "理论": 2282, 
  "深信": 2283, 
  "容许": 2284, 
  "定罪": 2285, 
  "删除": 2286, 
  "食品": 2287, 
  "有力": 2288, 
  "完善": 2289, 
  "产权": 2290, 
  "化": 2291, 
  "检控": 2292, 
  "后勤": 2293, 
  "不但": 2294, 
  "高等": 2295, 
  "实践": 2296, 
  "发言者": 2297, 
  "职": 2298, 
  "军备": 2299, 
  "款额": 2300, 
  "电台": 2301, 
  "小学": 2302, 
  "开会": 2303, 
  "迫切": 2304, 
  "会晤": 2305, 
  "十五": 2306, 
  "卫视": 2307, 
  "试图": 2308, 
  "队": 2309, 
  "守则": 2310, 
  "社会主义": 2311, 
  "着重": 2312, 
  "村": 2313, 
  "推出": 2314, 
  "接纳": 2315, 
  "种种": 2316, 
  "新闻部": 2317, 
  "制作": 2318, 
  "发起": 2319, 
  "听": 2320, 
  "的确": 2321, 
  "规范": 2322, 
  "标志": 2323, 
  "叫": 2324, 
  "强迫": 2325, 
  "工会": 2326, 
  "十二": 2327, 
  "汇率": 2328, 
  "比率": 2329, 
  "产业": 2330, 
  "安盟": 2331, 
  "信贷": 2332, 
  "民主党": 2333, 
  "随": 2334, 
  "经委会": 2335, 
  "大众": 2336, 
  "持": 2337, 
  "多样性": 2338, 
  "公园": 2339, 
  "坚定": 2340, 
  "兼": 2341, 
  "第49": 2342, 
  "伦敦": 2343, 
  "驾驶": 2344, 
  "等等": 2345, 
  "马@@": 2346, 
  "中文": 2347, 
  "施加": 2348, 
  "类型": 2349, 
  "船": 2350, 
  "in": 2351, 
  "期待": 2352, 
  "签订": 2353, 
  "靠": 2354, 
  "邻国": 2355, 
  "其余": 2356, 
  "加速": 2357, 
  "一贯": 2358, 
  "展览": 2359, 
  "士兵": 2360, 
  "究竟": 2361, 
  "排雷": 2362, 
  "重": 2363, 
  "先进": 2364, 
  "推进": 2365, 
  "释放": 2366, 
  "比赛": 2367, 
  "薪金": 2368, 
  "对象": 2369, 
  "座": 2370, 
  "金额": 2371, 
  "群众": 2372, 
  "物业": 2373, 
  "广告": 2374, 
  "教科文": 2375, 
  "始终": 2376, 
  "事先": 2377, 
  "分庭": 2378, 
  "朝": 2379, 
  "武力": 2380, 
  "取决于": 2381, 
  "志愿": 2382, 
  "人大": 2383, 
  "痛苦": 2384, 
  "一道": 2385, 
  "失去": 2386, 
  "官": 2387, 
  "泳滩": 2388, 
  "找": 2389, 
  "第51": 2390, 
  "女童": 2391, 
  "日後": 2392, 
  "别": 2393, 
  "利润": 2394, 
  "尽早": 2395, 
  "岛": 2396, 
  "犯": 2397, 
  "1988年": 2398, 
  "经贸": 2399, 
  "成效": 2400, 
  "偿还": 2401, 
  "自行": 2402, 
  "2003年": 2403, 
  "第52": 2404, 
  "环保": 2405, 
  "否": 2406, 
  "气氛": 2407, 
  "竞争力": 2408, 
  "分类": 2409, 
  "作法": 2410, 
  "丰富": 2411, 
  "中方": 2412, 
  "领空": 2413, 
  "时间表": 2414, 
  "东道国": 2415, 
  "实地": 2416, 
  "指引": 2417, 
  "警告": 2418, 
  "事务厅": 2419, 
  "旅客": 2420, 
  "波兰": 2421, 
  "停火": 2422, 
  "阻止": 2423, 
  "感染": 2424, 
  "马来西亚": 2425, 
  "写": 2426, 
  "保安": 2427, 
  "缔结": 2428, 
  "能否": 2429, 
  "核裁军": 2430, 
  "大厦": 2431, 
  "情形": 2432, 
  "农民": 2433, 
  "荷": 2434, 
  "图书馆": 2435, 
  "65": 2436, 
  "留": 2437, 
  "块": 2438, 
  "大力": 2439, 
  "往": 2440, 
  "事务局": 2441, 
  "中学": 2442, 
  "摩洛哥": 2443, 
  "电力": 2444, 
  "过境": 2445, 
  "办": 2446, 
  "主办": 2447, 
  "排放": 2448, 
  "尼日利亚": 2449, 
  "最初": 2450, 
  "设有": 2451, 
  "广大": 2452, 
  "奥地利": 2453, 
  "危地马拉": 2454, 
  "协作": 2455, 
  "可靠": 2456, 
  "常": 2457, 
  "隧道": 2458, 
  "入侵": 2459, 
  "判": 2460, 
  "拖延": 2461, 
  "细则": 2462, 
  "些": 2463, 
  "互联网": 2464, 
  "名额": 2465, 
  "仪式": 2466, 
  "年底": 2467, 
  "营养": 2468, 
  "吨": 2469, 
  "格鲁吉亚": 2470, 
  "关闭": 2471, 
  "分歧": 2472, 
  "学": 2473, 
  "对待": 2474, 
  "身": 2475, 
  "丧失": 2476, 
  "限度": 2477, 
  "合": 2478, 
  "借": 2479, 
  "客观": 2480, 
  "发行": 2481, 
  "最大": 2482, 
  "国会": 2483, 
  "下述": 2484, 
  "公营": 2485, 
  "做到": 2486, 
  "对於": 2487, 
  "宝贵": 2488, 
  "分享": 2489, 
  "提升": 2490, 
  "市区": 2491, 
  "位於": 2492, 
  "场所": 2493, 
  "线": 2494, 
  "发放": 2495, 
  "撤销": 2496, 
  "难民署": 2497, 
  "总体": 2498, 
  "体育": 2499, 
  "级别": 2500, 
  "变动": 2501, 
  "领取": 2502, 
  "通知书": 2503, 
  "第16": 2504, 
  "里面": 2505, 
  "所得": 2506, 
  "第15": 2507, 
  "固定": 2508, 
  "更改": 2509, 
  "病毒": 2510, 
  "裁定": 2511, 
  "依然": 2512, 
  "消灭": 2513, 
  "据说": 2514, 
  "70": 2515, 
  "心": 2516, 
  "自动": 2517, 
  "副秘书长": 2518, 
  "全力": 2519, 
  "净额": 2520, 
  "感觉": 2521, 
  "渠道": 2522, 
  "会计": 2523, 
  "证明书": 2524, 
  "高级别": 2525, 
  "送交": 2526, 
  "白俄罗斯": 2527, 
  "潜在": 2528, 
  "尊严": 2529, 
  "著": 2530, 
  "气体": 2531, 
  "现代化": 2532, 
  "负有": 2533, 
  "提述": 2534, 
  "文本": 2535, 
  "鼓舞": 2536, 
  "核查团": 2537, 
  "安装": 2538, 
  "利比亚": 2539, 
  "准许": 2540, 
  "电视台": 2541, 
  "软件": 2542, 
  "登记册": 2543, 
  "网址": 2544, 
  "储备": 2545, 
  "费": 2546, 
  "干事": 2547, 
  "请问": 2548, 
  "最好": 2549, 
  "燃料": 2550, 
  "基於": 2551, 
  "极其": 2552, 
  "厄立特里亚": 2553, 
  "iii": 2554, 
  "处罚": 2555, 
  "署": 2556, 
  "第53": 2557, 
  "代替": 2558, 
  "山": 2559, 
  "家长": 2560, 
  "抵达": 2561, 
  "rev.1": 2562, 
  "编号": 2563, 
  "第17": 2564, 
  "当天": 2565, 
  "智利": 2566, 
  "第47": 2567, 
  "道德": 2568, 
  "常常": 2569, 
  "作品": 2570, 
  "争议": 2571, 
  "法规": 2572, 
  "呀": 2573, 
  "距离": 2574, 
  "捷克": 2575, 
  "高@@": 2576, 
  "致": 2577, 
  "相比": 2578, 
  "必": 2579, 
  "一半": 2580, 
  "文职": 2581, 
  "生育": 2582, 
  "灵活": 2583, 
  "获取": 2584, 
  "移交": 2585, 
  "包含": 2586, 
  "节省": 2587, 
  "母亲": 2588, 
  "500": 2589, 
  "收取": 2590, 
  "转递": 2591, 
  "阿@@": 2592, 
  "腐败": 2593, 
  "几内亚": 2594, 
  "清洁": 2595, 
  "融资": 2596, 
  "罪犯": 2597, 
  "连续": 2598, 
  "审理": 2599, 
  "李@@": 2600, 
  "书记": 2601, 
  "深": 2602, 
  "香港人": 2603, 
  "俄": 2604, 
  "剥削": 2605, 
  "族裔": 2606, 
  "不良": 2607, 
  "透露": 2608, 
  "旅游业": 2609, 
  "融入": 2610, 
  "编列": 2611, 
  "塞族": 2612, 
  "司机": 2613, 
  "征聘": 2614, 
  "巴": 2615, 
  "西@@": 2616, 
  "捐助国": 2617, 
  "快速": 2618, 
  "开幕": 2619, 
  "索赔人": 2620, 
  "总署": 2621, 
  "星期六": 2622, 
  "元首": 2623, 
  "理事国": 2624, 
  "10@@": 2625, 
  "回到": 2626, 
  "电讯": 2627, 
  "有用": 2628, 
  "或是": 2629, 
  "基层": 2630, 
  "死": 2631, 
  "不幸": 2632, 
  "进": 2633, 
  "主流": 2634, 
  "续": 2635, 
  "储存": 2636, 
  "老年人": 2637, 
  "卷": 2638, 
  "枚": 2639, 
  "足以": 2640, 
  "大楼": 2641, 
  "规管": 2642, 
  "港口": 2643, 
  "席": 2644, 
  "哦": 2645, 
  "政权": 2646, 
  "嘛": 2647, 
  "法团": 2648, 
  "第19": 2649, 
  "阐述": 2650, 
  "一九九七年": 2651, 
  "听到": 2652, 
  "身体": 2653, 
  "择": 2654, 
  "发动": 2655, 
  "型": 2656, 
  "获悉": 2657, 
  "视察": 2658, 
  "二○○三年": 2659, 
  "输入": 2660, 
  "担保": 2661, 
  "入": 2662, 
  "手册": 2663, 
  "分区": 2664, 
  "西部": 2665, 
  "陈@@": 2666, 
  "不得不": 2667, 
  "80": 2668, 
  "行事": 2669, 
  "国民党": 2670, 
  "繁忙": 2671, 
  "仅仅": 2672, 
  "二十一": 2673, 
  "寻找": 2674, 
  "标题": 2675, 
  "缅甸": 2676, 
  "想法": 2677, 
  "订定": 2678, 
  "人人": 2679, 
  "免": 2680, 
  "有益": 2681, 
  "58": 2682, 
  "选": 2683, 
  "或许": 2684, 
  "灭绝": 2685, 
  "作业": 2686, 
  "送达": 2687, 
  "系": 2688, 
  "解放": 2689, 
  "顾及": 2690, 
  "第54": 2691, 
  "准确": 2692, 
  "违法": 2693, 
  "正义": 2694, 
  "负": 2695, 
  "记得": 2696, 
  "首席": 2697, 
  "陈述": 2698, 
  "扩展": 2699, 
  "加@@": 2700, 
  "华盛顿": 2701, 
  "中非": 2702, 
  "首都": 2703, 
  "团": 2704, 
  "培养": 2705, 
  "刚": 2706, 
  "革命": 2707, 
  "老": 2708, 
  "网站": 2709, 
  "驻地": 2710, 
  "女孩": 2711, 
  "强制": 2712, 
  "得出": 2713, 
  "区议会": 2714, 
  "民事": 2715, 
  "张@@": 2716, 
  "许可": 2717, 
  "c.1": 2718, 
  "涵盖": 2719, 
  "转交": 2720, 
  "吃": 2721, 
  "残疾人": 2722, 
  "l": 2723, 
  "希腊": 2724, 
  "人民币": 2725, 
  "报告书": 2726, 
  "合适": 2727, 
  "更新": 2728, 
  "m": 2729, 
  "空缺": 2730, 
  "法语": 2731, 
  "脆弱": 2732, 
  "衡量": 2733, 
  "子": 2734, 
  "小@@": 2735, 
  "职员": 2736, 
  "债权人": 2737, 
  "率": 2738, 
  "拉@@": 2739, 
  "街": 2740, 
  "采访": 2741, 
  "报表": 2742, 
  "部长级": 2743, 
  "进度": 2744, 
  "路线": 2745, 
  "生存": 2746, 
  "艘": 2747, 
  "然後": 2748, 
  "据称": 2749, 
  "收回": 2750, 
  "59": 2751, 
  "第25": 2752, 
  "毛额": 2753, 
  "k": 2754, 
  "de": 2755, 
  "电信": 2756, 
  "第八": 2757, 
  "业": 2758, 
  "国外": 2759, 
  "61": 2760, 
  "第18": 2761, 
  "金@@": 2762, 
  "先前": 2763, 
  "维和": 2764, 
  "间接": 2765, 
  "恰当": 2766, 
  "替代": 2767, 
  "观众": 2768, 
  "塞尔维亚": 2769, 
  "民意": 2770, 
  "敌对": 2771, 
  "阿塞拜疆": 2772, 
  "首要": 2773, 
  "纪律": 2774, 
  "姓名": 2775, 
  "联合会": 2776, 
  "房委会": 2777, 
  "粮农": 2778, 
  "利率": 2779, 
  "王@@": 2780, 
  "负责人": 2781, 
  "康乐": 2782, 
  "本来": 2783, 
  "突尼斯": 2784, 
  "西方": 2785, 
  "夫人": 2786, 
  "摊款": 2787, 
  "看看": 2788, 
  "处境": 2789, 
  "谋求": 2790, 
  "第十": 2791, 
  "长者": 2792, 
  "美军": 2793, 
  "客户": 2794, 
  "家属": 2795, 
  "管": 2796, 
  "强制性": 2797, 
  "求": 2798, 
  "面": 2799, 
  "博士": 2800, 
  "任意": 2801, 
  "海洋法": 2802, 
  "敏感": 2803, 
  "边境": 2804, 
  "葡萄牙": 2805, 
  "保存": 2806, 
  "货品": 2807, 
  "债务人": 2808, 
  "教育署": 2809, 
  "工作者": 2810, 
  "九龙": 2811, 
  "德@@": 2812, 
  "宜": 2813, 
  "禽流感": 2814, 
  "指挥": 2815, 
  "祖国": 2816, 
  "报导": 2817, 
  "他人": 2818, 
  "矛盾": 2819, 
  "奖": 2820, 
  "铭记": 2821, 
  "出于": 2822, 
  "至于": 2823, 
  "民警": 2824, 
  "生境": 2825, 
  "介乎": 2826, 
  "轨道": 2827, 
  "永久": 2828, 
  "销毁": 2829, 
  "%": 2830, 
  "短": 2831, 
  "假如": 2832, 
  "阿尔及利亚": 2833, 
  "德": 2834, 
  "必需": 2835, 
  "1992": 2836, 
  "层": 2837, 
  "要素": 2838, 
  "违背": 2839, 
  "时刻": 2840, 
  "透明": 2841, 
  "范畴": 2842, 
  "贯彻": 2843, 
  "早日": 2844, 
  "学位": 2845, 
  "格式": 2846, 
  "62": 2847, 
  "第55": 2848, 
  "业界": 2849, 
  "教训": 2850, 
  "无疑": 2851, 
  "常任": 2852, 
  "人手": 2853, 
  "差": 2854, 
  "厅": 2855, 
  "较为": 2856, 
  "大幅": 2857, 
  "防治": 2858, 
  "绝": 2859, 
  "迫": 2860, 
  "汇报": 2861, 
  "代价": 2862, 
  "会费": 2863, 
  "定于": 2864, 
  "养": 2865, 
  "除外": 2866, 
  "o": 2867, 
  "自由化": 2868, 
  "一向": 2869, 
  "宏观": 2870, 
  "限于": 2871, 
  "90": 2872, 
  "接获": 2873, 
  "必然": 2874, 
  "签字": 2875, 
  "彼此": 2876, 
  "刚刚": 2877, 
  "既然": 2878, 
  "庆祝": 2879, 
  "领袖": 2880, 
  "约旦": 2881, 
  "部份": 2882, 
  "中美洲": 2883, 
  "局面": 2884, 
  "有人": 2885, 
  "属於": 2886, 
  "自决": 2887, 
  "动物": 2888, 
  "州": 2889, 
  "75": 2890, 
  "会员": 2891, 
  "家园": 2892, 
  "汇编": 2893, 
  "例": 2894, 
  "当作": 2895, 
  "质疑": 2896, 
  "地下": 2897, 
  "依靠": 2898, 
  "施行": 2899, 
  "总结": 2900, 
  "着手": 2901, 
  "用以": 2902, 
  "层面": 2903, 
  "处决": 2904, 
  "应有": 2905, 
  "增长率": 2906, 
  "刊物": 2907, 
  "利息": 2908, 
  "判处": 2909, 
  "拘捕": 2910, 
  "减低": 2911, 
  "喜欢": 2912, 
  "用作": 2913, 
  "老师": 2914, 
  "不管": 2915, 
  "响应": 2916, 
  "第九": 2917, 
  "涉嫌": 2918, 
  "不@@": 2919, 
  "独特": 2920, 
  "买": 2921, 
  "庞大": 2922, 
  "卖淫": 2923, 
  "64": 2924, 
  "多样化": 2925, 
  "下文": 2926, 
  "犯下": 2927, 
  "引渡": 2928, 
  "回归": 2929, 
  "6@@": 2930, 
  "12@@": 2931, 
  "帐目": 2932, 
  "旅费": 2933, 
  "芬兰": 2934, 
  "自我": 2935, 
  "商务": 2936, 
  "第": 2937, 
  "致电": 2938, 
  "极端": 2939, 
  "无核": 2940, 
  "渔业": 2941, 
  "经合": 2942, 
  "秘鲁": 2943, 
  "举": 2944, 
  "别人": 2945, 
  "紧密": 2946, 
  "门": 2947, 
  "弃权": 2948, 
  "刑法": 2949, 
  "康复": 2950, 
  "列为": 2951, 
  "摘要": 2952, 
  "政制": 2953, 
  "简要": 2954, 
  "意图": 2955, 
  "63": 2956, 
  "港人": 2957, 
  "耶路撒冷": 2958, 
  "经社会": 2959, 
  "300": 2960, 
  "8@@": 2961, 
  "促成": 2962, 
  "乌拉圭": 2963, 
  "转型": 2964, 
  "卫生署": 2965, 
  "久": 2966, 
  "收": 2967, 
  "林@@": 2968, 
  "工厂": 2969, 
  "注重": 2970, 
  "充满": 2971, 
  "媒介": 2972, 
  "600": 2973, 
  "死亡率": 2974, 
  "学术": 2975, 
  "参观": 2976, 
  "应对": 2977, 
  "城": 2978, 
  "莫桑比克": 2979, 
  "班": 2980, 
  "海@@": 2981, 
  "缺少": 2982, 
  "妥善": 2983, 
  "学者": 2984, 
  "地址": 2985, 
  "加沙": 2986, 
  "巴黎": 2987, 
  "1991": 2988, 
  "决": 2989, 
  "付": 2990, 
  "卡@@": 2991, 
  "黑塞哥维": 2992, 
  "搞": 2993, 
  "三十": 2994, 
  "细节": 2995, 
  "沟通": 2996, 
  "十一": 2997, 
  "量": 2998, 
  "反": 2999, 
  "撤出": 3000, 
  "律政司": 3001, 
  "估计数": 3002, 
  "席位": 3003, 
  "公报": 3004, 
  "没收": 3005, 
  "孟加拉国": 3006, 
  "偏": 3007, 
  "杀伤": 3008, 
  "出生": 3009, 
  "1.@@": 3010, 
  "水@@": 3011, 
  "护理": 3012, 
  "66": 3013, 
  "信仰": 3014, 
  "检验": 3015, 
  "时限": 3016, 
  "纠正": 3017, 
  "加剧": 3018, 
  "对抗": 3019, 
  "形象": 3020, 
  "台北": 3021, 
  "移动": 3022, 
  "欧安": 3023, 
  "68": 3024, 
  "反@@": 3025, 
  "热烈": 3026, 
  "传媒": 3027, 
  "东": 3028, 
  "罗马尼亚": 3029, 
  "第22": 3030, 
  "比利时": 3031, 
  "展示": 3032, 
  "塔吉克斯坦": 3033, 
  "5@@": 3034, 
  "差异": 3035, 
  "航天": 3036, 
  "李鹏": 3037, 
  "动员": 3038, 
  "近东": 3039, 
  "运送": 3040, 
  "特@@": 3041, 
  "买卖": 3042, 
  "附加": 3043, 
  "婚姻": 3044, 
  "初级": 3045, 
  "有害": 3046, 
  "殖民地": 3047, 
  "13@@": 3048, 
  "鉴於": 3049, 
  "失望": 3050, 
  "开办": 3051, 
  "正当": 3052, 
  "第20": 3053, 
  "\\": 3054, 
  "全民": 3055, 
  "永远": 3056, 
  "保加利亚": 3057, 
  "沙特阿拉伯": 3058, 
  "阿尔巴尼亚": 3059, 
  "片": 3060, 
  "国有": 3061, 
  "中国人": 3062, 
  "议席": 3063, 
  "文章": 3064, 
  "第46": 3065, 
  "交付": 3066, 
  "67": 3067, 
  "囚犯": 3068, 
  "否认": 3069, 
  "语": 3070, 
  "劳工处": 3071, 
  "第1@@": 3072, 
  "上面": 3073, 
  "a@@": 3074, 
  "日常": 3075, 
  "14@@": 3076, 
  "大韩民国": 3077, 
  "空中": 3078, 
  "根源": 3079, 
  "中小型": 3080, 
  "爆发": 3081, 
  "晚": 3082, 
  "逾": 3083, 
  "仔细": 3084, 
  "联塞": 3085, 
  "界别": 3086, 
  "非@@": 3087, 
  "11@@": 3088, 
  "深刻": 3089, 
  "少年": 3090, 
  "第五十三": 3091, 
  ".@@": 3092, 
  "以致": 3093, 
  "星期日": 3094, 
  "拿": 3095, 
  "3@@": 3096, 
  "回": 3097, 
  "地铁": 3098, 
  "丹麦": 3099, 
  "4@@": 3100, 
  "次序": 3101, 
  "物资": 3102, 
  "手机": 3103, 
  "动力": 3104, 
  "北约": 3105, 
  "肯尼亚": 3106, 
  "遵循": 3107, 
  "更正": 3108, 
  "不满": 3109, 
  "有的": 3110, 
  "特遣队": 3111, 
  "住户": 3112, 
  "d@@": 3113, 
  "o@@": 3114, 
  "付出": 3115, 
  "杀害": 3116, 
  "特权": 3117, 
  "群": 3118, 
  "天气": 3119, 
  "发给": 3120, 
  "概述": 3121, 
  "考试": 3122, 
  "地面": 3123, 
  "黄@@": 3124, 
  "供应商": 3125, 
  "种类": 3126, 
  "分裂": 3127, 
  "}": 3128, 
  "引致": 3129, 
  "代表性": 3130, 
  "散发": 3131, 
  "等待": 3132, 
  "遗产": 3133, 
  "下面": 3134, 
  "干涉": 3135, 
  "倾向": 3136, 
  "营运": 3137, 
  "升": 3138, 
  "o.b.e.": 3139, 
  "人事": 3140, 
  "有助": 3141, 
  "公职": 3142, 
  "毫米": 3143, 
  "聘用": 3144, 
  "红十字": 3145, 
  "机": 3146, 
  "加紧": 3147, 
  "地震": 3148, 
  "近期": 3149, 
  "公认": 3150, 
  "参照": 3151, 
  "东欧": 3152, 
  "刊登": 3153, 
  "单一": 3154, 
  "72": 3155, 
  "辩护": 3156, 
  "调解": 3157, 
  "1987年": 3158, 
  "真": 3159, 
  "一@@": 3160, 
  "计算机": 3161, 
  "预防性": 3162, 
  "1986年": 3163, 
  "迹象": 3164, 
  "室": 3165, 
  "本局": 3166, 
  "所在": 3167, 
  "corr.1": 3168, 
  "协调会": 3169, 
  "污水": 3170, 
  "应急": 3171, 
  "探索": 3172, 
  "荒漠化": 3173, 
  "前南斯拉夫": 3174, 
  "7@@": 3175, 
  "仇外": 3176, 
  "民兵": 3177, 
  "毁灭性": 3178, 
  "升级": 3179, 
  "制造业": 3180, 
  "码头": 3181, 
  "克": 3182, 
  "护照": 3183, 
  "t@@": 3184, 
  "e@@": 3185, 
  "股票": 3186, 
  "队伍": 3187, 
  "经社": 3188, 
  "族": 3189, 
  "不妨": 3190, 
  "生殖": 3191, 
  "跟进": 3192, 
  "以为": 3193, 
  "处置": 3194, 
  "虽": 3195, 
  "生产力": 3196, 
  "总干事": 3197, 
  "屋": 3198, 
  "启动": 3199, 
  "网页": 3200, 
  "最少": 3201, 
  "议定": 3202, 
  "健全": 3203, 
  "简化": 3204, 
  "阵线": 3205, 
  "父亲": 3206, 
  "︰": 3207, 
  "第五十四": 3208, 
  "习惯": 3209, 
  "专利": 3210, 
  "一再": 3211, 
  "有意": 3212, 
  "补贴": 3213, 
  "提问": 3214, 
  "身分": 3215, 
  "业绩": 3216, 
  "家人": 3217, 
  "再度": 3218, 
  "隔离": 3219, 
  "统计处": 3220, 
  "描述": 3221, 
  "董事会": 3222, 
  "治理": 3223, 
  "前提": 3224, 
  "斯洛伐克": 3225, 
  "重返": 3226, 
  "即时": 3227, 
  "后者": 3228, 
  "连同": 3229, 
  "活力": 3230, 
  "供资": 3231, 
  "忽视": 3232, 
  "关税": 3233, 
  "澳门": 3234, 
  "会议室": 3235, 
  "失败": 3236, 
  "女子": 3237, 
  "第21": 3238, 
  "县": 3239, 
  "上市": 3240, 
  "水质": 3241, 
  "序言": 3242, 
  "禁运": 3243, 
  "交给": 3244, 
  "旧": 3245, 
  "势力": 3246, 
  "罗马": 3247, 
  "忧虑": 3248, 
  "弹药": 3249, 
  "表演": 3250, 
  "院校": 3251, 
  "载列": 3252, 
  "差别": 3253, 
  "拨出": 3254, 
  "亚美尼亚": 3255, 
  "哎": 3256, 
  "查阅": 3257, 
  "询问": 3258, 
  "算": 3259, 
  "塔利班": 3260, 
  "全球性": 3261, 
  "东部": 3262, 
  "院长": 3263, 
  "0@@": 3264, 
  "聆讯": 3265, 
  "坦桑尼亚": 3266, 
  "冷战": 3267, 
  "抗议": 3268, 
  "十四": 3269, 
  "任职": 3270, 
  "成长": 3271, 
  "必要性": 3272, 
  "交": 3273, 
  "低于": 3274, 
  "罗@@": 3275, 
  "9@@": 3276, 
  "佳": 3277, 
  "利": 3278, 
  "2@@": 3279, 
  "阐明": 3280, 
  "音乐": 3281, 
  "69": 3282, 
  "税": 3283, 
  "巴@@": 3284, 
  "达致": 3285, 
  "草拟": 3286, 
  "岛屿": 3287, 
  "大幅度": 3288, 
  "被捕": 3289, 
  "统筹": 3290, 
  "深切": 3291, 
  "众多": 3292, 
  "蒙古": 3293, 
  "匈牙利": 3294, 
  "做好": 3295, 
  "的士": 3296, 
  "恤金": 3297, 
  "届时": 3298, 
  "色情": 3299, 
  "强大": 3300, 
  "市政": 3301, 
  "治安": 3302, 
  "x{e": 3303, 
  "手续": 3304, 
  "分段": 3305, 
  "复苏": 3306, 
  "三十分": 3307, 
  "回来": 3308, 
  "工业化": 3309, 
  "北": 3310, 
  "1990年代": 3311, 
  "15@@": 3312, 
  "71": 3313, 
  "辅助": 3314, 
  "主义": 3315, 
  "办理": 3316, 
  "第五十": 3317, 
  "示范": 3318, 
  "本着": 3319, 
  "税收": 3320, 
  "合格": 3321, 
  "声音": 3322, 
  "干部": 3323, 
  "s@@": 3324, 
  "满": 3325, 
  "可行性": 3326, 
  "规章": 3327, 
  "核试验": 3328, 
  "授予": 3329, 
  "受理": 3330, 
  "无@@": 3331, 
  "伤亡": 3332, 
  "判断": 3333, 
  "副本": 3334, 
  "存款": 3335, 
  "k@@": 3336, 
  "突然": 3337, 
  "超出": 3338, 
  "受害人": 3339, 
  "g@@": 3340, 
  "正如": 3341, 
  "爱": 3342, 
  "地域": 3343, 
  "增至": 3344, 
  "74": 3345, 
  "81": 3346, 
  "灾难": 3347, 
  "澳": 3348, 
  "封闭": 3349, 
  "学会": 3350, 
  "投": 3351, 
  "文字": 3352, 
  "警务": 3353, 
  "安@@": 3354, 
  "外长": 3355, 
  "刑罚": 3356, 
  "萨尔瓦多": 3357, 
  "爱尔兰": 3358, 
  "之际": 3359, 
  "离": 3360, 
  "口": 3361, 
  "签证": 3362, 
  "坐": 3363, 
  "改组": 3364, 
  "稍後": 3365, 
  "附上": 3366, 
  "披露": 3367, 
  "应予": 3368, 
  "按揭": 3369, 
  "余额": 3370, 
  "73": 3371, 
  "大概": 3372, 
  "保安司": 3373, 
  "第五十五": 3374, 
  "董事": 3375, 
  "界": 3376, 
  "建": 3377, 
  "审慎": 3378, 
  "真诚": 3379, 
  "富有": 3380, 
  "内罗毕": 3381, 
  "逗留": 3382, 
  "不安": 3383, 
  "敢": 3384, 
  "注": 3385, 
  "自身": 3386, 
  "假": 3387, 
  "c.5": 3388, 
  "产出": 3389, 
  "层次": 3390, 
  "区别": 3391, 
  "t": 3392, 
  "削弱": 3393, 
  "附": 3394, 
  "政务司": 3395, 
  "游客": 3396, 
  "屠杀": 3397, 
  "财富": 3398, 
  "尼加拉瓜": 3399, 
  "短缺": 3400, 
  "金钱": 3401, 
  "出任": 3402, 
  "预警": 3403, 
  "假设": 3404, 
  "到底": 3405, 
  "经由": 3406, 
  "年轻": 3407, 
  "强奸": 3408, 
  "委内瑞拉": 3409, 
  "十八": 3410, 
  "总是": 3411, 
  "约束力": 3412, 
  "综援": 3413, 
  "二零零一年": 3414, 
  "联保": 3415, 
  "封": 3416, 
  "文@@": 3417, 
  "服务业": 3418, 
  "高层": 3419, 
  "融合": 3420, 
  "主导": 3421, 
  "失业率": 3422, 
  "反而": 3423, 
  "中@@": 3424, 
  "科@@": 3425, 
  "留意": 3426, 
  "其次": 3427, 
  "行径": 3428, 
  "将军": 3429, 
  "面向": 3430, 
  "婴儿": 3431, 
  "签发": 3432, 
  "消极": 3433, 
  "税务": 3434, 
  "第五十二": 3435, 
  "主体": 3436, 
  "20@@": 3437, 
  "假期": 3438, 
  "连接": 3439, 
  "自@@": 3440, 
  "物价": 3441, 
  "特": 3442, 
  "马其顿": 3443, 
  "病": 3444, 
  "第23": 3445, 
  "16@@": 3446, 
  "赤字": 3447, 
  "冻结": 3448, 
  "处所": 3449, 
  "届满": 3450, 
  "继承": 3451, 
  "气": 3452, 
  "周围": 3453, 
  "投标": 3454, 
  "85": 3455, 
  "国防": 3456, 
  "留下": 3457, 
  "引进": 3458, 
  "78": 3459, 
  "萨达姆": 3460, 
  "\"": 3461, 
  "庇护": 3462, 
  "走向": 3463, 
  "西岸": 3464, 
  "哥斯达黎加": 3465, 
  "2005年": 3466, 
  "地图": 3467, 
  "准": 3468, 
  "76": 3469, 
  "10%": 3470, 
  "印象": 3471, 
  "哈萨克斯坦": 3472, 
  "常务": 3473, 
  "明": 3474, 
  "分担": 3475, 
  "120": 3476, 
  "㈠": 3477, 
  "第29": 3478, 
  "400": 3479, 
  "劳动力": 3480, 
  "首长": 3481, 
  "民进": 3482, 
  "第五十一": 3483, 
  "灵活性": 3484, 
  "来到": 3485, 
  "半岛": 3486, 
  "宪报": 3487, 
  "加工": 3488, 
  "当年": 3489, 
  "98": 3490, 
  "贸易法": 3491, 
  "团长": 3492, 
  "董建华": 3493, 
  "消耗": 3494, 
  "公顷": 3495, 
  "三十日": 3496, 
  "圆满": 3497, 
  "西": 3498, 
  "意思": 3499, 
  "95": 3500, 
  "监督厅": 3501, 
  "函": 3502, 
  "㈡": 3503, 
  "变革": 3504, 
  "场地": 3505, 
  "常会": 3506, 
  "开设": 3507, 
  "外来": 3508, 
  "尽力": 3509, 
  "900": 3510, 
  "区分": 3511, 
  "紧迫": 3512, 
  "动用": 3513, 
  "双重": 3514, 
  "找出": 3515, 
  "特征": 3516, 
  "证件": 3517, 
  "c@@": 3518, 
  "继": 3519, 
  "到达": 3520, 
  "钻石": 3521, 
  "全权": 3522, 
  "示": 3523, 
  "北爱尔兰": 3524, 
  "噢": 3525, 
  "1982年": 3526, 
  "布@@": 3527, 
  "止": 3528, 
  "斯里兰卡": 3529, 
  "十三": 3530, 
  "商讨": 3531, 
  "追求": 3532, 
  "供水": 3533, 
  "屯门": 3534, 
  "卢萨卡": 3535, 
  "货柜": 3536, 
  "不用": 3537, 
  "营": 3538, 
  "详尽": 3539, 
  "人均": 3540, 
  "何时": 3541, 
  "流入": 3542, 
  "光": 3543, 
  "中间": 3544, 
  "南@@": 3545, 
  "医管局": 3546, 
  "开列": 3547, 
  "难民营": 3548, 
  "撤回": 3549, 
  "18@@": 3550, 
  "厄瓜多尔": 3551, 
  "激烈": 3552, 
  "99": 3553, 
  "交易所": 3554, 
  "西亚": 3555, 
  "游行": 3556, 
  "差饷": 3557, 
  "辅导": 3558, 
  "洗钱": 3559, 
  "湾仔": 3560, 
  "物": 3561, 
  "证": 3562, 
  "结婚": 3563, 
  "邮政": 3564, 
  "第43": 3565, 
  "组别": 3566, 
  "十六": 3567, 
  "既定": 3568, 
  "1985年": 3569, 
  "瞭解": 3570, 
  "审讯": 3571, 
  "n@@": 3572, 
  "递交": 3573, 
  "转型期": 3574, 
  "拍": 3575, 
  "运输署": 3576, 
  "适宜": 3577, 
  "西班牙语": 3578, 
  "其后": 3579, 
  "好像": 3580, 
  "二零零零年": 3581, 
  "临": 3582, 
  "79": 3583, 
  "承建商": 3584, 
  "96": 3585, 
  "版": 3586, 
  "初期": 3587, 
  "本条": 3588, 
  "净": 3589, 
  "啦": 3590, 
  "委托": 3591, 
  "南方": 3592, 
  "幅度": 3593, 
  "受害": 3594, 
  "总务": 3595, 
  "人身": 3596, 
  "经理": 3597, 
  "东南亚": 3598, 
  "97": 3599, 
  "舆论": 3600, 
  "份额": 3601, 
  "控": 3602, 
  "核证": 3603, 
  "脱离": 3604, 
  "示威": 3605, 
  "飞越": 3606, 
  "承受": 3607, 
  "记": 3608, 
  "百分比": 3609, 
  "退休金": 3610, 
  "76f": 3611, 
  "管制署": 3612, 
  "10年": 3613, 
  "冲击": 3614, 
  "第34": 3615, 
  "有待": 3616, 
  "民主化": 3617, 
  "卡": 3618, 
  "循环": 3619, 
  "直升机": 3620, 
  "同等": 3621, 
  "共产党": 3622, 
  "外国人": 3623, 
  "员": 3624, 
  "撤离": 3625, 
  "原先": 3626, 
  "炸弹": 3627, 
  "违例": 3628, 
  "东盟": 3629, 
  "专责": 3630, 
  "第56": 3631, 
  "第五十六": 3632, 
  "早期": 3633, 
  "雇佣": 3634, 
  "减": 3635, 
  "周期": 3636, 
  "作战": 3637, 
  "通胀": 3638, 
  "人物": 3639, 
  "台独": 3640, 
  "82": 3641, 
  "迫使": 3642, 
  "统治": 3643, 
  "中等": 3644, 
  "画": 3645, 
  "军": 3646, 
  "第44": 3647, 
  "利@@": 3648, 
  "特色": 3649, 
  "命运": 3650, 
  "印": 3651, 
  "亚": 3652, 
  "小心": 3653, 
  "f@@": 3654, 
  "其後": 3655, 
  "第24": 3656, 
  "派出": 3657, 
  "裁减": 3658, 
  "93": 3659, 
  "林": 3660, 
  "被告人": 3661, 
  "可持续": 3662, 
  "华人": 3663, 
  "穆斯林": 3664, 
  "发展权": 3665, 
  "基建": 3666, 
  "力": 3667, 
  "引发": 3668, 
  "总共": 3669, 
  "充足": 3670, 
  "克@@": 3671, 
  "天@@": 3672, 
  "斯@@": 3673, 
  "均衡": 3674, 
  "17@@": 3675, 
  "92": 3676, 
  "确": 3677, 
  "第@@": 3678, 
  "特使": 3679, 
  "填补": 3680, 
  "首相": 3681, 
  "持牌": 3682, 
  "章程": 3683, 
  "b@@": 3684, 
  "超越": 3685, 
  "副总理": 3686, 
  "使用者": 3687, 
  "篇": 3688, 
  "明天": 3689, 
  "无线": 3690, 
  "i@@": 3691, 
  "选定": 3692, 
  "国@@": 3693, 
  "沉重": 3694, 
  "复员": 3695, 
  "第45": 3696, 
  "轮功": 3697, 
  "万": 3698, 
  "季度": 3699, 
  "早上": 3700, 
  "核实": 3701, 
  "财经": 3702, 
  "第26": 3703, 
  "91": 3704, 
  "采纳": 3705, 
  "认同": 3706, 
  "日子": 3707, 
  "遵从": 3708, 
  "无线电": 3709, 
  "印尼": 3710, 
  "to": 3711, 
  "约束": 3712, 
  "自由党": 3713, 
  "职工": 3714, 
  "限额": 3715, 
  "从来": 3716, 
  "和谐": 3717, 
  "会否": 3718, 
  "可惜": 3719, 
  "青年人": 3720, 
  "最为": 3721, 
  "沿海": 3722, 
  "流通": 3723, 
  "第37": 3724, 
  "索取": 3725, 
  "提倡": 3726, 
  "麻醉": 3727, 
  "代理人": 3728, 
  "亚@@": 3729, 
  "同志": 3730, 
  "集会": 3731, 
  "94": 3732, 
  "前面": 3733, 
  "刘@@": 3734, 
  "预先": 3735, 
  "塞": 3736, 
  "男": 3737, 
  "会面": 3738, 
  "债券": 3739, 
  "幅": 3740, 
  "h@@": 3741, 
  "84": 3742, 
  "工": 3743, 
  "第27": 3744, 
  "撰文人": 3745, 
  "免疫": 3746, 
  "沙田": 3747, 
  "昨日": 3748, 
  "表面": 3749, 
  "演出": 3750, 
  "老@@": 3751, 
  "纳@@": 3752, 
  "股市": 3753, 
  "简报": 3754, 
  "基@@": 3755, 
  "迟": 3756, 
  "远远": 3757, 
  "不足以": 3758, 
  "第32": 3759, 
  "战": 3760, 
  "课": 3761, 
  "超": 3762, 
  "新闻界": 3763, 
  "十九": 3764, 
  "兄弟": 3765, 
  "150": 3766, 
  "疫苗": 3767, 
  "校": 3768, 
  "迎接": 3769, 
  "m@@": 3770, 
  "50%": 3771, 
  "n": 3772, 
  "现状": 3773, 
  "因特网": 3774, 
  "学员": 3775, 
  "困境": 3776, 
  "措词": 3777, 
  "通道": 3778, 
  "精简": 3779, 
  "划分": 3780, 
  "警队": 3781, 
  "不时": 3782, 
  "保安局": 3783, 
  "认捐": 3784, 
  "气象": 3785, 
  "必不可少": 3786, 
  "第28": 3787, 
  "原有": 3788, 
  "案例": 3789, 
  "纳米比亚": 3790, 
  "基准": 3791, 
  "申报": 3792, 
  "群岛": 3793, 
  "u@@": 3794, 
  "88": 3795, 
  "分为": 3796, 
  "先决": 3797, 
  "内阁": 3798, 
  "股份": 3799, 
  "拉": 3800, 
  "奥@@": 3801, 
  "金管局": 3802, 
  "秘密": 3803, 
  "收看": 3804, 
  "余": 3805, 
  "办公": 3806, 
  "大不列颠": 3807, 
  "架次": 3808, 
  "开罗": 3809, 
  "伊@@": 3810, 
  "疑问": 3811, 
  "83": 3812, 
  "日前": 3813, 
  "中央台": 3814, 
  "行人": 3815, 
  "行政局": 3816, 
  "苏联": 3817, 
  "ma@@": 3818, 
  "严厉": 3819, 
  "马": 3820, 
  "题目": 3821, 
  "机械": 3822, 
  "受益": 3823, 
  "否决": 3824, 
  "侵害": 3825, 
  "前途": 3826, 
  "发@@": 3827, 
  "斯": 3828, 
  "2.@@": 3829, 
  "演习": 3830, 
  "地盘": 3831, 
  "伊": 3832, 
  "公积金": 3833, 
  "内政": 3834, 
  "x": 3835, 
  "增多": 3836, 
  "认定": 3837, 
  "救援": 3838, 
  "答案": 3839, 
  "为主": 3840, 
  "达@@": 3841, 
  "复兴": 3842, 
  "1984年": 3843, 
  "分开": 3844, 
  "运载": 3845, 
  "产量": 3846, 
  "工作量": 3847, 
  "更换": 3848, 
  "火箭": 3849, 
  "驱逐": 3850, 
  "现任": 3851, 
  "清理": 3852, 
  "著名": 3853, 
  "零": 3854, 
  "负面": 3855, 
  "各界": 3856, 
  "担忧": 3857, 
  "赞助": 3858, 
  "第四十九": 3859, 
  "大致": 3860, 
  "外债": 3861, 
  "苦难": 3862, 
  "混乱": 3863, 
  "裁谈会": 3864, 
  "浪费": 3865, 
  "比如说": 3866, 
  "遵照": 3867, 
  "巴格达": 3868, 
  "器": 3869, 
  "噪音": 3870, 
  "负责任": 3871, 
  "过往": 3872, 
  "乡村": 3873, 
  "当事人": 3874, 
  "居": 3875, 
  "西藏": 3876, 
  "出色": 3877, 
  "､": 3878, 
  "势头": 3879, 
  "增设": 3880, 
  "欲": 3881, 
  "接": 3882, 
  "奠定": 3883, 
  "剩余": 3884, 
  "以免": 3885, 
  "过分": 3886, 
  "常委会": 3887, 
  "第41": 3888, 
  "on": 3889, 
  "水准": 3890, 
  "international": 3891, 
  "档案": 3892, 
  "执业": 3893, 
  "街道": 3894, 
  "〔": 3895, 
  "特性": 3896, 
  "〕": 3897, 
  "刺激": 3898, 
  "东@@": 3899, 
  "86": 3900, 
  "海底": 3901, 
  "87": 3902, 
  "照片": 3903, 
  "扎伊尔": 3904, 
  "贩毒": 3905, 
  "清洗": 3906, 
  "次数": 3907, 
  "y@@": 3908, 
  "人格": 3909, 
  "拖欠": 3910, 
  "列明": 3911, 
  "人道主义法": 3912, 
  "r": 3913, 
  "额": 3914, 
  "800": 3915, 
  "声": 3916, 
  "男性": 3917, 
  "那时": 3918, 
  "三十一日": 3919, 
  "无辜": 3920, 
  "周梁淑怡": 3921, 
  "申明": 3922, 
  "甚": 3923, 
  "权威": 3924, 
  "塞内加尔": 3925, 
  "辞职": 3926, 
  "101": 3927, 
  "新@@": 3928, 
  "水域": 3929, 
  "辖下": 3930, 
  "论点": 3931, 
  "第4@@": 3932, 
  "舱": 3933, 
  "十七": 3934, 
  "非殖民化": 3935, 
  "保密": 3936, 
  "费率": 3937, 
  "普及": 3938, 
  "分布": 3939, 
  "工商": 3940, 
  "牙买加": 3941, 
  "接收": 3942, 
  "颇": 3943, 
  "获准": 3944, 
  "税率": 3945, 
  "海事": 3946, 
  "第40": 3947, 
  "re@@": 3948, 
  "干": 3949, 
  "89": 3950, 
  "p.@@": 3951, 
  "1980年": 3952, 
  "内@@": 3953, 
  "封锁": 3954, 
  "莫斯科": 3955, 
  "缓慢": 3956, 
  "突破": 3957, 
  "上涨": 3958, 
  "法@@": 3959, 
  "翻译": 3960, 
  "尼泊尔": 3961, 
  "ar@@": 3962, 
  "3.@@": 3963, 
  "伟大": 3964, 
  "高达": 3965, 
  "使命": 3966, 
  "配偶": 3967, 
  "警员": 3968, 
  "深感": 3969, 
  "有效率": 3970, 
  "焦点": 3971, 
  "商界": 3972, 
  "厘定": 3973, 
  "尝试": 3974, 
  "20%": 3975, 
  "25@@": 3976, 
  "合法性": 3977, 
  "下放": 3978, 
  "毕业": 3979, 
  "征求": 3980, 
  "1@@": 3981, 
  "想到": 3982, 
  "直到": 3983, 
  "p@@": 3984, 
  "不法": 3985, 
  "陷入": 3986, 
  "河": 3987, 
  "邻近": 3988, 
  "大会堂": 3989, 
  "说话": 3990, 
  "搜查": 3991, 
  "编辑": 3992, 
  "第39": 3993, 
  "忘记": 3994, 
  "穷人": 3995, 
  "以後": 3996, 
  "核定": 3997, 
  "罪名": 3998, 
  "测量": 3999, 
  "陪同": 4000, 
  "友谊": 4001, 
  "引入": 4002, 
  "诊所": 4003, 
  "天然气": 4004, 
  "定居": 4005, 
  "排放量": 4006, 
  "情绪": 4007, 
  "──": 4008, 
  "成熟": 4009, 
  "公安": 4010, 
  "海军": 4011, 
  "重组": 4012, 
  "牺牲": 4013, 
  "v": 4014, 
  "聘请": 4015, 
  "二零零二年": 4016, 
  "一百": 4017, 
  "5%": 4018, 
  "赞比亚": 4019, 
  "市长": 4020, 
  "之上": 4021, 
  "报纸": 4022, 
  "阵地": 4023, 
  "谨慎": 4024, 
  "苏@@": 4025, 
  "不予": 4026, 
  "26@@": 4027, 
  "国内法": 4028, 
  "其他人": 4029, 
  "绑架": 4030, 
  "示范法": 4031, 
  "附录": 4032, 
  "运行": 4033, 
  "负债": 4034, 
  "多@@": 4035, 
  "1000": 4036, 
  "申索": 4037, 
  "熟悉": 4038, 
  "暂行": 4039, 
  "保养": 4040, 
  "打@@": 4041, 
  "实力": 4042, 
  "制品": 4043, 
  "摧毁": 4044, 
  "东京": 4045, 
  "娱乐": 4046, 
  "故": 4047, 
  "举例": 4048, 
  "缺陷": 4049, 
  "la": 4050, 
  "真实": 4051, 
  "招聘": 4052, 
  "医学": 4053, 
  "故事": 4054, 
  "出发": 4055, 
  "延误": 4056, 
  "巡逻": 4057, 
  "养护": 4058, 
  "普遍性": 4059, 
  "前任": 4060, 
  "实": 4061, 
  "栏": 4062, 
  "公务": 4063, 
  "乐观": 4064, 
  "哈": 4065, 
  "视乎": 4066, 
  "al": 4067, 
  "防御": 4068, 
  "热线": 4069, 
  "定居点": 4070, 
  "改造": 4071, 
  "当今": 4072, 
  "素质": 4073, 
  "深圳": 4074, 
  "历史性": 4075, 
  "指挥官": 4076, 
  "什么样": 4077, 
  "权限": 4078, 
  "奖励": 4079, 
  "杂项": 4080, 
  "分组": 4081, 
  "种植": 4082, 
  "李柱铭": 4083, 
  "沙@@": 4084, 
  "毫无疑问": 4085, 
  "动机": 4086, 
  "送": 4087, 
  "1967年": 4088, 
  "700": 4089, 
  "开@@": 4090, 
  "加纳": 4091, 
  "一如": 4092, 
  "恐怕": 4093, 
  "无效": 4094, 
  "公斤": 4095, 
  "干旱": 4096, 
  "提起": 4097, 
  "广场": 4098, 
  "直选": 4099, 
  "军火": 4100, 
  "同胞": 4101, 
  "户": 4102, 
  "遥感": 4103, 
  "向前": 4104, 
  "通": 4105, 
  "雇佣军": 4106, 
  "相当于": 4107, 
  "叙述": 4108, 
  "缩短": 4109, 
  "津巴布韦": 4110, 
  "营业": 4111, 
  "订约": 4112, 
  "结算": 4113, 
  "发展局": 4114, 
  "塔@@": 4115, 
  "房屋署": 4116, 
  "胜利": 4117, 
  "波黑": 4118, 
  "摆脱": 4119, 
  "欠": 4120, 
  "竞赛": 4121, 
  "组合": 4122, 
  "罪案": 4123, 
  "厂": 4124, 
  "支配": 4125, 
  "比额": 4126, 
  "大选": 4127, 
  "风": 4128, 
  "亲自": 4129, 
  "美好": 4130, 
  "实验": 4131, 
  "见到": 4132, 
  "荃湾": 4133, 
  "号码": 4134, 
  "颁发": 4135, 
  "清晰": 4136, 
  "赴": 4137, 
  "思考": 4138, 
  "十五日": 4139, 
  "人选": 4140, 
  "名册": 4141, 
  "参与者": 4142, 
  "普查": 4143, 
  "l@@": 4144, 
  "轻微": 4145, 
  "教": 4146, 
  "斯洛文尼亚": 4147, 
  "步伐": 4148, 
  "区域性": 4149, 
  "民建联": 4150, 
  "黑山": 4151, 
  "几十": 4152, 
  "分割": 4153, 
  "跌": 4154, 
  "信念": 4155, 
  "放宽": 4156, 
  "加深": 4157, 
  "所有权": 4158, 
  "杰出": 4159, 
  "考察": 4160, 
  "截止": 4161, 
  "换": 4162, 
  "商": 4163, 
  "回收": 4164, 
  "邮件": 4165, 
  "进出口": 4166, 
  "审": 4167, 
  "军人": 4168, 
  "白@@": 4169, 
  "提前": 4170, 
  "柴油": 4171, 
  "大小": 4172, 
  "如今": 4173, 
  "企业家": 4174, 
  "第42": 4175, 
  "古@@": 4176, 
  "技术性": 4177, 
  "七日": 4178, 
  "走私": 4179, 
  "交由": 4180, 
  "前进": 4181, 
  "心@@": 4182, 
  "儿子": 4183, 
  "派遣国": 4184, 
  "入息": 4185, 
  "观测": 4186, 
  "患者": 4187, 
  "海牙": 4188, 
  "飞": 4189, 
  "会期": 4190, 
  "民主主义": 4191, 
  "恶劣": 4192, 
  "一行": 4193, 
  "悲剧": 4194, 
  "增幅": 4195, 
  "不当": 4196, 
  "二十四": 4197, 
  "物料": 4198, 
  "巴拿马": 4199, 
  "忽略": 4200, 
  "玻利维亚": 4201, 
  "武器区": 4202, 
  "游泳": 4203, 
  "法人": 4204, 
  "四十": 4205, 
  "转达": 4206, 
  "差不多": 4207, 
  "番": 4208, 
  "悬挂": 4209, 
  "比照": 4210, 
  "介入": 4211, 
  "培训班": 4212, 
  "指责": 4213, 
  "元朗": 4214, 
  "圆桌": 4215, 
  "公@@": 4216, 
  "无论如何": 4217, 
  "近日": 4218, 
  "预定": 4219, 
  "2003": 4220, 
  "鱼类": 4221, 
  "副@@": 4222, 
  "吸收": 4223, 
  "经济体": 4224, 
  "原本": 4225, 
  "十日": 4226, 
  "生意": 4227, 
  "c.2": 4228, 
  "里约": 4229, 
  "外@@": 4230, 
  "道理": 4231, 
  "革新": 4232, 
  "期货": 4233, 
  "演变": 4234, 
  "加价": 4235, 
  "技巧": 4236, 
  "强化": 4237, 
  "油": 4238, 
  "24@@": 4239, 
  "名字": 4240, 
  "博物馆": 4241, 
  "百": 4242, 
  "告": 4243, 
  "侧重": 4244, 
  "备选": 4245, 
  "竞选": 4246, 
  "第33": 4247, 
  "正面": 4248, 
  "体": 4249, 
  "中断": 4250, 
  "有点": 4251, 
  "印刷": 4252, 
  "院": 4253, 
  "援引": 4254, 
  "中止": 4255, 
  "辐射": 4256, 
  "公然": 4257, 
  "演讲": 4258, 
  "马上": 4259, 
  "反对派": 4260, 
  "贪污": 4261, 
  "三分之一": 4262, 
  "交往": 4263, 
  "师": 4264, 
  "马耳他": 4265, 
  "诚意": 4266, 
  "中部": 4267, 
  "三@@": 4268, 
  "审核": 4269, 
  "预料": 4270, 
  "顾客": 4271, 
  "累积": 4272, 
  "绝大多数": 4273, 
  "年轻人": 4274, 
  "终审": 4275, 
  "大纲": 4276, 
  "死者": 4277, 
  "源": 4278, 
  "妻子": 4279, 
  "外空": 4280, 
  "关乎": 4281, 
  "爱沙尼亚": 4282, 
  "有效性": 4283, 
  "外资": 4284, 
  "公用": 4285, 
  "稿": 4286, 
  "哈根": 4287, 
  "当代": 4288, 
  "排斥": 4289, 
  "民用": 4290, 
  "震惊": 4291, 
  "力求": 4292, 
  "y": 4293, 
  "j@@": 4294, 
  "荣幸": 4295, 
  "夫": 4296, 
  "故意": 4297, 
  "当日": 4298, 
  "江": 4299, 
  "解放军": 4300, 
  "徵收": 4301, 
  "怕": 4302, 
  "论": 4303, 
  "村庄": 4304, 
  "选票": 4305, 
  "维@@": 4306, 
  "会同": 4307, 
  "以至": 4308, 
  "z@@": 4309, 
  "成年人": 4310, 
  "哥本": 4311, 
  "课题": 4312, 
  "休会": 4313, 
  "版权": 4314, 
  "酒店": 4315, 
  "广": 4316, 
  "习俗": 4317, 
  "邮票": 4318, 
  "回返": 4319, 
  "将近": 4320, 
  "船民": 4321, 
  "活": 4322, 
  "众所周知": 4323, 
  "围绕": 4324, 
  "拉脱维亚": 4325, 
  "空军": 4326, 
  "港府": 4327, 
  "铁": 4328, 
  "纺织品": 4329, 
  "缴纳": 4330, 
  "含有": 4331, 
  "穷国": 4332, 
  "起到": 4333, 
  "al@@": 4334, 
  "引用": 4335, 
  "街头": 4336, 
  "流行": 4337, 
  "禁毒": 4338, 
  "不仅仅": 4339, 
  "植物": 4340, 
  "体力": 4341, 
  "物体": 4342, 
  "纠纷": 4343, 
  "de@@": 4344, 
  "选区": 4345, 
  "研制": 4346, 
  "统筹司": 4347, 
  "法制": 4348, 
  "构想": 4349, 
  "九七年": 4350, 
  "故此": 4351, 
  "23@@": 4352, 
  "转@@": 4353, 
  "南亚": 4354, 
  "九日": 4355, 
  "立陶宛": 4356, 
  "蔓延": 4357, 
  "扣押": 4358, 
  "校长": 4359, 
  "哈@@": 4360, 
  "略": 4361, 
  "委会": 4362, 
  "发牌": 4363, 
  "场合": 4364, 
  "轻武器": 4365, 
  "改动": 4366, 
  "轮候": 4367, 
  "衷心": 4368, 
  "策划": 4369, 
  "关": 4370, 
  "活跃": 4371, 
  "时机": 4372, 
  "5.@@": 4373, 
  "巿民": 4374, 
  "对方": 4375, 
  "明@@": 4376, 
  "八日": 4377, 
  "补助": 4378, 
  "u": 4379, 
  "马里": 4380, 
  "不人道": 4381, 
  "劳资": 4382, 
  "ra@@": 4383, 
  "长@@": 4384, 
  "兑换": 4385, 
  "海峡": 4386, 
  "喀麦隆": 4387, 
  "in@@": 4388, 
  "第五十七": 4389, 
  "捍卫": 4390, 
  "童工": 4391, 
  "援助团": 4392, 
  "作物": 4393, 
  "延迟": 4394, 
  "二十八日": 4395, 
  "中亚": 4396, 
  "减免": 4397, 
  "慷慨": 4398, 
  "货车": 4399, 
  "1981年": 4400, 
  "指派": 4401, 
  "协同": 4402, 
  "温室": 4403, 
  "丈夫": 4404, 
  "十四日": 4405, 
  "成@@": 4406, 
  "附有": 4407, 
  "措辞": 4408, 
  "得知": 4409, 
  "起飞": 4410, 
  "治": 4411, 
  "杀": 4412, 
  "旁": 4413, 
  "学科": 4414, 
  "兹": 4415, 
  "基": 4416, 
  "游戏": 4417, 
  "市镇": 4418, 
  "管道": 4419, 
  "过度": 4420, 
  "干扰": 4421, 
  "批出": 4422, 
  "用地": 4423, 
  "二十五": 4424, 
  "人家": 4425, 
  "第30": 4426, 
  "感受": 4427, 
  "适用于": 4428, 
  "环保署": 4429, 
  "盈余": 4430, 
  "损坏": 4431, 
  "看出": 4432, 
  "二十六日": 4433, 
  "瓦@@": 4434, 
  "北方": 4435, 
  "li@@": 4436, 
  "医务": 4437, 
  "尔": 4438, 
  "民": 4439, 
  "1990": 4440, 
  "二十五日": 4441, 
  "二十日": 4442, 
  "搜集": 4443, 
  "妈妈": 4444, 
  "la@@": 4445, 
  "附带": 4446, 
  "知悉": 4447, 
  "谋杀": 4448, 
  "虚假": 4449, 
  "分@@": 4450, 
  "挑选": 4451, 
  "机遇": 4452, 
  "an@@": 4453, 
  "持有人": 4454, 
  "警卫": 4455, 
  "商会": 4456, 
  "储蓄": 4457, 
  "扣除": 4458, 
  "独联体": 4459, 
  "三日": 4460, 
  "安": 4461, 
  "裁判": 4462, 
  "在场": 4463, 
  "形态": 4464, 
  "米@@": 4465, 
  "加大": 4466, 
  "未必": 4467, 
  "接到": 4468, 
  "妥协": 4469, 
  "收支": 4470, 
  "军方": 4471, 
  "往来": 4472, 
  "无害": 4473, 
  "任用": 4474, 
  "人为": 4475, 
  "一九九五年": 4476, 
  "摆": 4477, 
  "怎么样": 4478, 
  "a节": 4479, 
  "统筹局": 4480, 
  "缩小": 4481, 
  "尽管如此": 4482, 
  "上限": 4483, 
  "当值": 4484, 
  "二十四日": 4485, 
  "经常性": 4486, 
  "福利署": 4487, 
  "照会": 4488, 
  "金属": 4489, 
  "第35": 4490, 
  "六日": 4491, 
  "私有化": 4492, 
  "里@@": 4493, 
  "研训": 4494, 
  "副部长": 4495, 
  "先后": 4496, 
  "布雷顿": 4497, 
  "清除": 4498, 
  "放射性": 4499, 
  "值": 4500, 
  "怀孕": 4501, 
  "执政": 4502, 
  "总监": 4503, 
  "启用": 4504, 
  "居屋": 4505, 
  "第十九": 4506, 
  "0": 4507, 
  "草稿": 4508, 
  "审批": 4509, 
  "风暴": 4510, 
  "人道": 4511, 
  "吴@@": 4512, 
  "深表": 4513, 
  "关押": 4514, 
  "大臣": 4515, 
  "太空": 4516, 
  "五日": 4517, 
  "三分之二": 4518, 
  "忆及": 4519, 
  "s.@@": 4520, 
  "卖": 4521, 
  "公会": 4522, 
  "呈交": 4523, 
  "一九九六年": 4524, 
  "垄断": 4525, 
  "看待": 4526, 
  "杜@@": 4527, 
  "如同": 4528, 
  "赢得": 4529, 
  "莫@@": 4530, 
  "明日": 4531, 
  "参看": 4532, 
  "归还": 4533, 
  "营地": 4534, 
  "租用": 4535, 
  "危及": 4536, 
  "高速": 4537, 
  "地产": 4538, 
  "房": 4539, 
  "杂志": 4540, 
  "备选案": 4541, 
  "证监会": 4542, 
  "c.@@": 4543, 
  "骚扰": 4544, 
  "优秀": 4545, 
  "确切": 4546, 
  "列举": 4547, 
  "崇高": 4548, 
  "等于": 4549, 
  "2004年": 4550, 
  "雷@@": 4551, 
  "27@@": 4552, 
  "真相": 4553, 
  "假定": 4554, 
  "互利": 4555, 
  "石@@": 4556, 
  "害": 4557, 
  "萨@@": 4558, 
  "城镇": 4559, 
  "高于": 4560, 
  "要点": 4561, 
  "成人": 4562, 
  "急剧": 4563, 
  "尼@@": 4564, 
  "大多": 4565, 
  "特许": 4566, 
  "曼谷": 4567, 
  "居所": 4568, 
  "共计": 4569, 
  "也门": 4570, 
  "货值": 4571, 
  "民航": 4572, 
  "阿布哈兹": 4573, 
  "退化": 4574, 
  "第十一": 4575, 
  "就是": 4576, 
  "异议": 4577, 
  "重@@": 4578, 
  "谈谈": 4579, 
  "十六日": 4580, 
  "出@@": 4581, 
  "第31": 4582, 
  "十二日": 4583, 
  "东亚": 4584, 
  "相等": 4585, 
  "情": 4586, 
  "标记": 4587, 
  "共体": 4588, 
  "出去": 4589, 
  "塞@@": 4590, 
  "二十七日": 4591, 
  "碎片": 4592, 
  "乘": 4593, 
  "独立性": 4594, 
  "wimax": 4595, 
  "弥补": 4596, 
  "联安": 4597, 
  "分散": 4598, 
  "次区域": 4599, 
  "拘留者": 4600, 
  "传染病": 4601, 
  "二十九日": 4602, 
  "二十二日": 4603, 
  "化学品": 4604, 
  "国务": 4605, 
  "犯有": 4606, 
  "四日": 4607, 
  "修复": 4608, 
  "广东": 4609, 
  "地中海": 4610, 
  "十九日": 4611, 
  "官兵": 4612, 
  "克林顿": 4613, 
  "不懈": 4614, 
  "㈢": 4615, 
  "老年": 4616, 
  "纳": 4617, 
  "合作社": 4618, 
  "第36": 4619, 
  "清": 4620, 
  "杨@@": 4621, 
  "□": 4622, 
  "终于": 4623, 
  "大战": 4624, 
  "1949年": 4625, 
  "消防": 4626, 
  "枪支": 4627, 
  "事务司": 4628, 
  "中欧": 4629, 
  "外界": 4630, 
  "捐赠": 4631, 
  "指称": 4632, 
  "毋": 4633, 
  "打破": 4634, 
  "a.@@": 4635, 
  "播出": 4636, 
  "龙": 4637, 
  "联检组": 4638, 
  "多於": 4639, 
  "人@@": 4640, 
  "缓解": 4641, 
  "角": 4642, 
  "二日": 4643, 
  "延续": 4644, 
  "le@@": 4645, 
  "iv": 4646, 
  "立刻": 4647, 
  "价值观": 4648, 
  "划": 4649, 
  "恐吓": 4650, 
  "九时": 4651, 
  "似": 4652, 
  "a/": 4653, 
  "大使馆": 4654, 
  "报酬": 4655, 
  "二十一日": 4656, 
  "振兴": 4657, 
  "再生": 4658, 
  "尔@@": 4659, 
  "刘慧卿": 4660, 
  "通货膨胀": 4661, 
  "平方米": 4662, 
  "an": 4663, 
  "海岸": 4664, 
  "徒刑": 4665, 
  "争论": 4666, 
  "配额": 4667, 
  "与会": 4668, 
  "承付": 4669, 
  "呼吸": 4670, 
  "回国": 4671, 
  "售卖": 4672, 
  "fccc": 4673, 
  "手法": 4674, 
  "穿": 4675, 
  "周@@": 4676, 
  "典型": 4677, 
  "伤": 4678, 
  "一并": 4679, 
  "互动": 4680, 
  "主@@": 4681, 
  "自主": 4682, 
  "比如": 4683, 
  "en@@": 4684, 
  "含": 4685, 
  "标签": 4686, 
  "社团": 4687, 
  "4.@@": 4688, 
  "al-@@": 4689, 
  "纯粹": 4690, 
  "0.@@": 4691, 
  "房地": 4692, 
  "28@@": 4693, 
  "徵询": 4694, 
  "格@@": 4695, 
  "海湾": 4696, 
  "发送": 4697, 
  "北@@": 4698, 
  "规限": 4699, 
  "身份证": 4700, 
  "谈话": 4701, 
  "dp": 4702, 
  "第十二": 4703, 
  "存放": 4704, 
  "sub.2": 4705, 
  "30%": 4706, 
  "第38": 4707, 
  "不容忍": 4708, 
  "二十三日": 4709, 
  "灯": 4710, 
  "查验": 4711, 
  "圣@@": 4712, 
  "过半数": 4713, 
  "购置": 4714, 
  "民生": 4715, 
  "话题": 4716, 
  "深远": 4717, 
  "工程师": 4718, 
  "戏": 4719, 
  "华@@": 4720, 
  "主": 4721, 
  "幼稚园": 4722, 
  "七时": 4723, 
  "内陆": 4724, 
  "曾荫权": 4725, 
  "收容": 4726, 
  "借口": 4727, 
  "停车场": 4728, 
  "抵": 4729, 
  "国防部": 4730, 
  "6.@@": 4731, 
  "们": 4732, 
  "花@@": 4733, 
  "马英九": 4734, 
  "优质": 4735, 
  "尸体": 4736, 
  "置于": 4737, 
  "关联": 4738, 
  "逻辑": 4739, 
  "确信": 4740, 
  "扫雷": 4741, 
  "110": 4742, 
  "供款": 4743, 
  "人质": 4744, 
  "v@@": 4745, 
  "扮演": 4746, 
  "录": 4747, 
  "宋楚瑜": 4748, 
  "无关": 4749, 
  "科学家": 4750, 
  "西撒哈拉": 4751, 
  "总@@": 4752, 
  "胡@@": 4753, 
  "电@@": 4754, 
  "职类": 4755, 
  "万@@": 4756, 
  "挺": 4757, 
  "致使": 4758, 
  "节约": 4759, 
  "航天员": 4760, 
  "延期": 4761, 
  "必定": 4762, 
  "煽动": 4763, 
  "人体": 4764, 
  "桶": 4765, 
  "太多": 4766, 
  "积金": 4767, 
  "无核武器": 4768, 
  "信纳": 4769, 
  "十一日": 4770, 
  "舞台": 4771, 
  "制约": 4772, 
  "经营者": 4773, 
  "有时候": 4774, 
  "希族": 4775, 
  "预见": 4776, 
  "应收款": 4777, 
  "捕鱼": 4778, 
  "眼": 4779, 
  "ti@@": 4780, 
  "价": 4781, 
  "下令": 4782, 
  "参阅": 4783, 
  "十八日": 4784, 
  "收购": 4785, 
  "随即": 4786, 
  "多元化": 4787, 
  "帮": 4788, 
  "w@@": 4789, 
  "很大": 4790, 
  "缔约": 4791, 
  "影响力": 4792, 
  "回合": 4793, 
  "存": 4794, 
  "law": 4795, 
  "出庭": 4796, 
  "等级": 4797, 
  "缴款": 4798, 
  "妇发": 4799, 
  "招标": 4800, 
  "垃圾": 4801, 
  "严峻": 4802, 
  "之所以": 4803, 
  "二零零三年": 4804, 
  "无视": 4805, 
  "关岛": 4806, 
  "自卫": 4807, 
  "105": 4808, 
  "歧视性": 4809, 
  "1974年": 4810, 
  "在职": 4811, 
  "第5@@": 4812, 
  "镇": 4813, 
  "盖": 4814, 
  "主持人": 4815, 
  "朱@@": 4816, 
  "总裁": 4817, 
  "扭转": 4818, 
  "涂谨申": 4819, 
  "平台": 4820, 
  "相@@": 4821, 
  "样本": 4822, 
  "看作": 4823, 
  "坚信": 4824, 
  "展望": 4825, 
  "推荐": 4826, 
  "报章": 4827, 
  "机器": 4828, 
  "鲁@@": 4829, 
  "增编": 4830, 
  "而已": 4831, 
  "上半年": 4832, 
  "简短": 4833, 
  "热情": 4834, 
  "年初": 4835, 
  "迈出": 4836, 
  "答辩": 4837, 
  "大批": 4838, 
  "辱": 4839, 
  "护士": 4840, 
  "2007年": 4841, 
  "掉": 4842, 
  "尼": 4843, 
  "缴": 4844, 
  "营商": 4845, 
  "工商界": 4846, 
  "残忍": 4847, 
  "可见": 4848, 
  "筹集": 4849, 
  "103": 4850, 
  "地政": 4851, 
  "5000": 4852, 
  "第四十八": 4853, 
  "对策": 4854, 
  "炮弹": 4855, 
  "意": 4856, 
  "男人": 4857, 
  "有@@": 4858, 
  "退出": 4859, 
  "暴行": 4860, 
  "合乎": 4861, 
  "检获": 4862, 
  "日@@": 4863, 
  "弱": 4864, 
  "行动部": 4865, 
  "板": 4866, 
  "招募": 4867, 
  "终了": 4868, 
  "3%": 4869, 
  "毕业生": 4870, 
  "女儿": 4871, 
  "信件": 4872, 
  "某人": 4873, 
  "7.@@": 4874, 
  "红": 4875, 
  "都市": 4876, 
  "十七日": 4877, 
  "执照": 4878, 
  "携带": 4879, 
  "举报": 4880, 
  "平": 4881, 
  "山@@": 4882, 
  "补助金": 4883, 
  "倘若": 4884, 
  "1983年": 4885, 
  "过来": 4886, 
  "解雇": 4887, 
  "京都": 4888, 
  "医护": 4889, 
  "热": 4890, 
  "禁毒署": 4891, 
  "申请书": 4892, 
  "港币": 4893, 
  "接着": 4894, 
  "伤残": 4895, 
  "决议案": 4896, 
  "社": 4897, 
  "澳洲": 4898, 
  "中午": 4899, 
  "油价": 4900, 
  "增值": 4901, 
  "黄金": 4902, 
  "处於": 4903, 
  "25%": 4904, 
  "普@@": 4905, 
  "通往": 4906, 
  "接待": 4907, 
  "正好": 4908, 
  "空运": 4909, 
  "足": 4910, 
  "救灾": 4911, 
  "花费": 4912, 
  "生@@": 4913, 
  "成分": 4914, 
  "切合": 4915, 
  "加重": 4916, 
  "贝@@": 4917, 
  "出示": 4918, 
  "航行": 4919, 
  "c.3": 4920, 
  "循": 4921, 
  "含义": 4922, 
  "19@@": 4923, 
  "下@@": 4924, 
  "西欧": 4925, 
  "学年": 4926, 
  "考验": 4927, 
  "巴尔干": 4928, 
  "第1998": 4929, 
  "环节": 4930, 
  "承包商": 4931, 
  "内战": 4932, 
  "信号": 4933, 
  "清@@": 4934, 
  "结盟": 4935, 
  "食": 4936, 
  "普京": 4937, 
  "地@@": 4938, 
  "运输司": 4939, 
  "率领": 4940, 
  "受托人": 4941, 
  "仪器": 4942, 
  "纷纷": 4943, 
  "1979年": 4944, 
  "互助": 4945, 
  "信誉": 4946, 
  "到来": 4947, 
  "感情": 4948, 
  "看见": 4949, 
  "博@@": 4950, 
  "包装": 4951, 
  "意志": 4952, 
  "吸烟": 4953, 
  "人群": 4954, 
  "欧": 4955, 
  "跨界": 4956, 
  "科研": 4957, 
  "科特迪瓦": 4958, 
  "cn.9": 4959, 
  "29@@": 4960, 
  "裁判官": 4961, 
  "双@@": 4962, 
  "亲属": 4963, 
  "深化": 4964, 
  "依存": 4965, 
  "转口": 4966, 
  "兵": 4967, 
  "重叠": 4968, 
  "住所": 4969, 
  "p-4": 4970, 
  "奉行": 4971, 
  "缔造": 4972, 
  "五@@": 4973, 
  "农产品": 4974, 
  "审裁": 4975, 
  "嘉宾": 4976, 
  "合办": 4977, 
  "火警": 4978, 
  "p-3": 4979, 
  "艰难": 4980, 
  "蓄意": 4981, 
  "红@@": 4982, 
  "u.k.": 4983, 
  "估价": 4984, 
  "迪@@": 4985, 
  "凭": 4986, 
  "谈论": 4987, 
  "决定性": 4988, 
  "十三日": 4989, 
  "及早": 4990, 
  "论述": 4991, 
  "六十": 4992, 
  "创作": 4993, 
  "控告": 4994, 
  "六时": 4995, 
  "美@@": 4996, 
  "消失": 4997, 
  "罗": 4998, 
  "鱼": 4999, 
  "104": 5000, 
  "114": 5001, 
  "谢@@": 5002, 
  "废料": 5003, 
  "梁智鸿": 5004, 
  "石": 5005, 
  "102": 5006, 
  "厂商": 5007, 
  "军用": 5008, 
  "唱": 5009, 
  "第二十三": 5010, 
  "欧元": 5011, 
  "专案": 5012, 
  "商人": 5013, 
  "覆盖": 5014, 
  "r@@": 5015, 
  "动": 5016, 
  "155": 5017, 
  "颗": 5018, 
  "广州": 5019, 
  "第2000": 5020, 
  "政协": 5021, 
  "般": 5022, 
  "联": 5023, 
  "福祉": 5024, 
  "见解": 5025, 
  "免除": 5026, 
  "替": 5027, 
  "传真": 5028, 
  "以南": 5029, 
  "es": 5030, 
  "塞族人": 5031, 
  "作者": 5032, 
  "同情": 5033, 
  "集": 5034, 
  "108": 5035, 
  "带有": 5036, 
  "打开": 5037, 
  "牌": 5038, 
  "评定": 5039, 
  "你好": 5040, 
  "安南": 5041, 
  "di@@": 5042, 
  "内外": 5043, 
  "地政司": 5044, 
  "一时": 5045, 
  "末": 5046, 
  "自杀": 5047, 
  "幼儿": 5048, 
  "于是": 5049, 
  "咨商": 5050, 
  "乌@@": 5051, 
  "111": 5052, 
  "出售品": 5053, 
  "实验室": 5054, 
  "发售": 5055, 
  "店": 5056, 
  "弹性": 5057, 
  "拉加": 5058, 
  "脚": 5059, 
  "正规": 5060, 
  "明智": 5061, 
  "综合性": 5062, 
  "推翻": 5063, 
  "上@@": 5064, 
  "奉": 5065, 
  "货运": 5066, 
  "小巴": 5067, 
  "修理": 5068, 
  "警务处": 5069, 
  "典礼": 5070, 
  "照": 5071, 
  "现况": 5072, 
  "布政司": 5073, 
  "儿": 5074, 
  "知名": 5075, 
  "十多": 5076, 
  "梅@@": 5077, 
  "甲": 5078, 
  "廉政": 5079, 
  "斜坡": 5080, 
  "中立": 5081, 
  "1978年": 5082, 
  "征得": 5083, 
  "产妇": 5084, 
  "梁": 5085, 
  "内务": 5086, 
  "演": 5087, 
  "得益": 5088, 
  "定位": 5089, 
  "环": 5090, 
  "走上": 5091, 
  "风@@": 5092, 
  "错": 5093, 
  "不结盟": 5094, 
  "效应": 5095, 
  "立": 5096, 
  "吉@@": 5097, 
  "凌晨": 5098, 
  "艰苦": 5099, 
  "扣留": 5100, 
  "保护署": 5101, 
  "机密": 5102, 
  "公署": 5103, 
  "安定": 5104, 
  "同盟": 5105, 
  "引": 5106, 
  "落成": 5107, 
  "境外": 5108, 
  "段落": 5109, 
  "李": 5110, 
  "裂变": 5111, 
  "牵涉": 5112, 
  "联网": 5113, 
  "钱其琛": 5114, 
  "有形": 5115, 
  "受让人": 5116, 
  "白": 5117, 
  "克什米尔": 5118, 
  "or": 5119, 
  "富": 5120, 
  "全文": 5121, 
  "报名": 5122, 
  "第1999": 5123, 
  "决策者": 5124, 
  "支柱": 5125, 
  "落": 5126, 
  "ri@@": 5127, 
  "迁移": 5128, 
  "吉尔吉斯斯坦": 5129, 
  "倒": 5130, 
  "实务": 5131, 
  "流量": 5132, 
  "节余": 5133, 
  "第1997": 5134, 
  "相似": 5135, 
  "患有": 5136, 
  "戈兰": 5137, 
  "包": 5138, 
  "第3@@": 5139, 
  "党派": 5140, 
  "流": 5141, 
  "15%": 5142, 
  "遏制": 5143, 
  "刘健仪": 5144, 
  "解散": 5145, 
  "尽速": 5146, 
  "106": 5147, 
  "本部": 5148, 
  "隔": 5149, 
  "载於": 5150, 
  "军官": 5151, 
  "否决权": 5152, 
  "力度": 5153, 
  "受惠": 5154, 
  "无数": 5155, 
  "缓和": 5156, 
  "竟然": 5157, 
  "托克劳": 5158, 
  "第1996": 5159, 
  "se@@": 5160, 
  "目睹": 5161, 
  "仇恨": 5162, 
  "须要": 5163, 
  "30@@": 5164, 
  "合理化": 5165, 
  "日趋": 5166, 
  "爵士": 5167, 
  "目的地": 5168, 
  "债": 5169, 
  "根除": 5170, 
  "多谢": 5171, 
  "缺点": 5172, 
  "食肆": 5173, 
  "自决权": 5174, 
  "er": 5175, 
  "塔": 5176, 
  "无意": 5177, 
  "影片": 5178, 
  "山区": 5179, 
  "商标": 5180, 
  "捕": 5181, 
  "取": 5182, 
  "冯检基": 5183, 
  "卢森堡": 5184, 
  "离婚": 5185, 
  "送往": 5186, 
  "口译": 5187, 
  "跌幅": 5188, 
  "占有": 5189, 
  "总书记": 5190, 
  "变为": 5191, 
  "寿命": 5192, 
  "数码": 5193, 
  "皆": 5194, 
  "福利司": 5195, 
  "坏": 5196, 
  "联刚": 5197, 
  "闭会": 5198, 
  "贝尔格莱德": 5199, 
  "边缘": 5200, 
  "休息": 5201, 
  "倡导": 5202, 
  "运营": 5203, 
  "受雇": 5204, 
  "肯": 5205, 
  "沙特": 5206, 
  "增添": 5207, 
  "for": 5208, 
  "树": 5209, 
  "宣称": 5210, 
  "托@@": 5211, 
  "乾部": 5212, 
  "余下": 5213, 
  "贝宁": 5214, 
  "殴打": 5215, 
  "乡": 5216, 
  "小册子": 5217, 
  "待议": 5218, 
  "据悉": 5219, 
  "一九九一年": 5220, 
  "参加者": 5221, 
  "发展商": 5222, 
  "艰巨": 5223, 
  "等候": 5224, 
  "行驶": 5225, 
  "朝着": 5226, 
  "载入": 5227, 
  "安全区": 5228, 
  "转为": 5229, 
  "6%": 5230, 
  "作证": 5231, 
  "严重性": 5232, 
  "十时": 5233, 
  "沿": 5234, 
  "规格": 5235, 
  "一九九四年": 5236, 
  "通用": 5237, 
  "标准化": 5238, 
  "判刑": 5239, 
  "品质": 5240, 
  "卫生部": 5241, 
  "ch@@": 5242, 
  "民国": 5243, 
  "不错": 5244, 
  "40%": 5245, 
  "换言之": 5246, 
  "去世": 5247, 
  "比绍": 5248, 
  "李登辉": 5249, 
  "恩@@": 5250, 
  "复原": 5251, 
  "理事": 5252, 
  "检查组": 5253, 
  "图@@": 5254, 
  "友": 5255, 
  "水道": 5256, 
  "单元": 5257, 
  "日报": 5258, 
  "4%": 5259, 
  "福@@": 5260, 
  "可怕": 5261, 
  "居留权": 5262, 
  "离职": 5263, 
  "讲座": 5264, 
  "1977年": 5265, 
  "招待会": 5266, 
  "此后": 5267, 
  "原始": 5268, 
  "合署": 5269, 
  "黄": 5270, 
  "所在地": 5271, 
  "转": 5272, 
  "表决权": 5273, 
  "反恐": 5274, 
  "可用": 5275, 
  "否定": 5276, 
  "国防部长": 5277, 
  "升幅": 5278, 
  "声援": 5279, 
  "对手": 5280, 
  "记者会": 5281, 
  "10万": 5282, 
  "宣誓": 5283, 
  "2%": 5284, 
  "智慧": 5285, 
  "112": 5286, 
  "光碟": 5287, 
  "误解": 5288, 
  "票价": 5289, 
  "叛乱": 5290, 
  "世": 5291, 
  "悲惨": 5292, 
  "1%": 5293, 
  "波": 5294, 
  "专": 5295, 
  "司法部": 5296, 
  "起码": 5297, 
  "姆@@": 5298, 
  "109": 5299, 
  "欣赏": 5300, 
  "22@@": 5301, 
  "获益": 5302, 
  "107": 5303, 
  "多米尼加": 5304, 
  "联黎": 5305, 
  "孤立": 5306, 
  "东区": 5307, 
  "生计": 5308, 
  "80%": 5309, 
  "僵局": 5310, 
  "姆": 5311, 
  "铲除": 5312, 
  "轰炸": 5313, 
  "初次": 5314, 
  "光@@": 5315, 
  "8.@@": 5316, 
  "困扰": 5317, 
  "专用": 5318, 
  "宣读": 5319, 
  "新闻稿": 5320, 
  "赠款": 5321, 
  "格": 5322, 
  "注册处": 5323, 
  "慈善": 5324, 
  "行程": 5325, 
  "呃@@": 5326, 
  "连战": 5327, 
  "埃@@": 5328, 
  "犯人": 5329, 
  "查@@": 5330, 
  "作好": 5331, 
  "编": 5332, 
  "频繁": 5333, 
  "各样": 5334, 
  "波动": 5335, 
  "航班": 5336, 
  "鉴定": 5337, 
  "准入": 5338, 
  "一级": 5339, 
  "阅读": 5340, 
  "密集": 5341, 
  "联海": 5342, 
  "殖民主义": 5343, 
  "零售": 5344, 
  "建成": 5345, 
  "学童": 5346, 
  "ed": 5347, 
  "黄宏发": 5348, 
  "座谈会": 5349, 
  "狗": 5350, 
  "路边": 5351, 
  "同@@": 5352, 
  "船员": 5353, 
  "100万": 5354, 
  "田北俊": 5355, 
  "扩充": 5356, 
  "照料": 5357, 
  "开采": 5358, 
  "精确": 5359, 
  "称赞": 5360, 
  "偏见": 5361, 
  "固有": 5362, 
  "理": 5363, 
  "不平等": 5364, 
  "阶级": 5365, 
  "礼": 5366, 
  "堂": 5367, 
  "内在": 5368, 
  "睦邻": 5369, 
  "转向": 5370, 
  "阻挠": 5371, 
  "房子": 5372, 
  "押後": 5373, 
  "总协定": 5374, 
  "预备": 5375, 
  "把握": 5376, 
  "平@@": 5377, 
  "新年": 5378, 
  "监测组": 5379, 
  "文学": 5380, 
  "数十": 5381, 
  "奇@@": 5382, 
  "根": 5383, 
  "迫害": 5384, 
  "可取": 5385, 
  "矿物": 5386, 
  "250": 5387, 
  "建造业": 5388, 
  "同学": 5389, 
  "忠告": 5390, 
  "人次": 5391, 
  "吸取": 5392, 
  "份子": 5393, 
  "李华明": 5394, 
  "早些": 5395, 
  "麻醉品": 5396, 
  "利害": 5397, 
  "可持续性": 5398, 
  "第2@@": 5399, 
  "教会": 5400, 
  "抵抗": 5401, 
  "前来": 5402, 
  "空": 5403, 
  "王": 5404, 
  "南京": 5405, 
  "巴巴多斯": 5406, 
  "外围": 5407, 
  "库@@": 5408, 
  "波@@": 5409, 
  "客人": 5410, 
  "抓住": 5411, 
  "外籍": 5412, 
  "李卓人": 5413, 
  "ad@@": 5414, 
  "美方": 5415, 
  "精力": 5416, 
  "多哥": 5417, 
  "积累": 5418, 
  "动态": 5419, 
  "卢@@": 5420, 
  "房地产": 5421, 
  "演辞": 5422, 
  "总局": 5423, 
  "引导": 5424, 
  "as": 5425, 
  "就座": 5426, 
  "股东": 5427, 
  "触犯": 5428, 
  "转让人": 5429, 
  "td": 5430, 
  "承办": 5431, 
  "en": 5432, 
  "龙@@": 5433, 
  "引述": 5434, 
  "阿鲁沙": 5435, 
  "入学": 5436, 
  "界限": 5437, 
  "湾": 5438, 
  "创建": 5439, 
  "抵触": 5440, 
  "疫情": 5441, 
  "运": 5442, 
  "查": 5443, 
  "交代": 5444, 
  "l.@@": 5445, 
  "第1373": 5446, 
  "113": 5447, 
  "形容": 5448, 
  "实物": 5449, 
  "不顾": 5450, 
  "希@@": 5451, 
  "真是": 5452, 
  "难道": 5453, 
  "注意力": 5454, 
  "交出": 5455, 
  "红旗": 5456, 
  "回家": 5457, 
  "遭遇": 5458, 
  "版本": 5459, 
  "李永达": 5460, 
  "女人": 5461, 
  "家具": 5462, 
  "收@@": 5463, 
  "双": 5464, 
  "惩处": 5465, 
  "赚取": 5466, 
  "派发": 5467, 
  "零@@": 5468, 
  "跨越": 5469, 
  "填海": 5470, 
  "评注": 5471, 
  "读者": 5472, 
  "180": 5473, 
  "http": 5474, 
  "警官": 5475, 
  "空间站": 5476, 
  "队员": 5477, 
  "乌兹别克斯坦": 5478, 
  "莱@@": 5479, 
  "事务署": 5480, 
  "原油": 5481, 
  "管治": 5482, 
  "木@@": 5483, 
  "境况": 5484, 
  "成年": 5485, 
  "co@@": 5486, 
  "add.2": 5487, 
  "杨孝华": 5488, 
  "容量": 5489, 
  "入狱": 5490, 
  "通告": 5491, 
  "家@@": 5492, 
  "转换": 5493, 
  "缴交": 5494, 
  "哪里": 5495, 
  "服装": 5496, 
  "大埔": 5497, 
  "严肃": 5498, 
  "昂贵": 5499, 
  "册": 5500, 
  "文物": 5501, 
  "担当": 5502, 
  "八时": 5503, 
  "不致": 5504, 
  "动荡": 5505, 
  "教材": 5506, 
  "单止": 5507, 
  "税项": 5508, 
  "一九九三年": 5509, 
  "十@@": 5510, 
  "后面": 5511, 
  "处在": 5512, 
  "办事": 5513, 
  "乐": 5514, 
  "116": 5515, 
  "ro@@": 5516, 
  "公立": 5517, 
  "122": 5518, 
  "专家们": 5519, 
  "第十七": 5520, 
  "采矿": 5521, 
  "盗版": 5522, 
  "模型": 5523, 
  "制造商": 5524, 
  "马德里": 5525, 
  "产": 5526, 
  "歌": 5527, 
  "近来": 5528, 
  "进修": 5529, 
  "恐惧": 5530, 
  "me@@": 5531, 
  "is@@": 5532, 
  "可望": 5533, 
  "评审": 5534, 
  "广东省": 5535, 
  "一九九二年": 5536, 
  "理念": 5537, 
  "产值": 5538, 
  "纾缓": 5539, 
  "吸引力": 5540, 
  "乃": 5541, 
  "白皮书": 5542, 
  "永久性": 5543, 
  "研讯": 5544, 
  "装": 5545, 
  "在座": 5546, 
  "林业": 5547, 
  "谭耀宗": 5548, 
  "酋长国": 5549, 
  "低於": 5550, 
  "奇怪": 5551, 
  "拒": 5552, 
  "绳之以法": 5553, 
  "第2001": 5554, 
  "峰会": 5555, 
  "房舍": 5556, 
  "er@@": 5557, 
  "汽油": 5558, 
  "缺席": 5559, 
  "美国人": 5560, 
  "出租": 5561, 
  "识别": 5562, 
  "丧生": 5563, 
  "来访": 5564, 
  "大部份": 5565, 
  "身为": 5566, 
  "1975年": 5567, 
  "工商业": 5568, 
  "派驻": 5569, 
  "流行病": 5570, 
  "索偿": 5571, 
  "强加": 5572, 
  "着眼": 5573, 
  "先例": 5574, 
  "/@@": 5575, 
  "毕竟": 5576, 
  "拨": 5577, 
  "指令": 5578, 
  "反措施": 5579, 
  "殖民": 5580, 
  "职司": 5581, 
  "出境": 5582, 
  "召集": 5583, 
  "色": 5584, 
  "桥": 5585, 
  "举措": 5586, 
  "36@@": 5587, 
  "展": 5588, 
  "夫妇": 5589, 
  "海港": 5590, 
  "回报": 5591, 
  "8%": 5592, 
  "定额": 5593, 
  "上学": 5594, 
  "帕@@": 5595, 
  "开拓": 5596, 
  "热@@": 5597, 
  "国务卿": 5598, 
  "ing": 5599, 
  "转入": 5600, 
  "租赁": 5601, 
  "传送": 5602, 
  "算是": 5603, 
  "效能": 5604, 
  "温家宝": 5605, 
  "手术": 5606, 
  "分离": 5607, 
  "点@@": 5608, 
  "130": 5609, 
  "土": 5610, 
  "南南合作": 5611, 
  "入境者": 5612, 
  "附注": 5613, 
  "机动": 5614, 
  "二时": 5615, 
  "不单": 5616, 
  "沿岸": 5617, 
  "行车": 5618, 
  "显得": 5619, 
  "穆@@": 5620, 
  "配备": 5621, 
  "un@@": 5622, 
  "村民": 5623, 
  "学费": 5624, 
  "品": 5625, 
  "入境处": 5626, 
  "si@@": 5627, 
  "旅": 5628, 
  "减灾": 5629, 
  "拉美": 5630, 
  "合@@": 5631, 
  "学@@": 5632, 
  "认证": 5633, 
  "纳税人": 5634, 
  "流感": 5635, 
  "导演": 5636, 
  "韩": 5637, 
  "储备金": 5638, 
  "全国性": 5639, 
  "作@@": 5640, 
  "兰": 5641, 
  "建交": 5642, 
  "老挝": 5643, 
  "38@@": 5644, 
  "一带": 5645, 
  "核能": 5646, 
  "索@@": 5647, 
  "60%": 5648, 
  "衰退": 5649, 
  "保@@": 5650, 
  "国王": 5651, 
  "联格": 5652, 
  "致命": 5653, 
  "提@@": 5654, 
  "药": 5655, 
  "奋斗": 5656, 
  "热带": 5657, 
  "预审": 5658, 
  "第8@@": 5659, 
  "20年": 5660, 
  "增": 5661, 
  "刘千石": 5662, 
  "就职": 5663, 
  "调节": 5664, 
  "ha@@": 5665, 
  "轻型": 5666, 
  "应否": 5667, 
  "契约": 5668, 
  "115": 5669, 
  "中华民国": 5670, 
  "老龄": 5671, 
  "调": 5672, 
  "本函": 5673, 
  "若否": 5674, 
  "聚集": 5675, 
  "编纂": 5676, 
  "草": 5677, 
  "宪制": 5678, 
  "纸": 5679, 
  "追讨": 5680, 
  "此间": 5681, 
  "强行": 5682, 
  "乐@@": 5683, 
  "飞船": 5684, 
  "迈向": 5685, 
  "训研所": 5686, 
  "优良": 5687, 
  "陈婉娴": 5688, 
  "谈及": 5689, 
  "布鲁塞尔": 5690, 
  "港岛": 5691, 
  "正@@": 5692, 
  "财力": 5693, 
  "第二十": 5694, 
  "施工": 5695, 
  "联@@": 5696, 
  "拯救": 5697, 
  "改": 5698, 
  "示威者": 5699, 
  "报复": 5700, 
  "组建": 5701, 
  "冰岛": 5702, 
  "皮@@": 5703, 
  "奖学金": 5704, 
  "通@@": 5705, 
  "预咨": 5706, 
  "地政局": 5707, 
  "转化": 5708, 
  "基督教": 5709, 
  "抵制": 5710, 
  "土著人": 5711, 
  "新增": 5712, 
  "拍摄": 5713, 
  "斐济": 5714, 
  "薪金税": 5715, 
  "务实": 5716, 
  "陆续": 5717, 
  "民@@": 5718, 
  "创立": 5719, 
  "解释性": 5720, 
  "播放": 5721, 
  "患": 5722, 
  "to@@": 5723, 
  "讯息": 5724, 
  "排": 5725, 
  "125": 5726, 
  "发觉": 5727, 
  "兼顾": 5728, 
  "划定": 5729, 
  "es@@": 5730, 
  "油@@": 5731, 
  "勇气": 5732, 
  "记入": 5733, 
  "设定": 5734, 
  "审评": 5735, 
  "稳固": 5736, 
  "土族": 5737, 
  "传染": 5738, 
  "st@@": 5739, 
  "年会": 5740, 
  "入口": 5741, 
  "第6@@": 5742, 
  "7%": 5743, 
  "mu@@": 5744, 
  "火": 5745, 
  "技合": 5746, 
  "is": 5747, 
  "议长": 5748, 
  "会计师": 5749, 
  "洪都拉斯": 5750, 
  "冠军": 5751, 
  "列车": 5752, 
  "愈来愈": 5753, 
  "超级": 5754, 
  "私家车": 5755, 
  "非正规": 5756, 
  "现阶段": 5757, 
  "行@@": 5758, 
  "下载": 5759, 
  "分项": 5760, 
  "阿拉伯语": 5761, 
  "萨拉热窝": 5762, 
  "降至": 5763, 
  "惩治": 5764, 
  "捐助者": 5765, 
  "觉": 5766, 
  "控诉": 5767, 
  "烟草": 5768, 
  "联卢": 5769, 
  "在一起": 5770, 
  "桥梁": 5771, 
  "百万": 5772, 
  "用语": 5773, 
  "禁试": 5774, 
  "毛里求斯": 5775, 
  "二十六": 5776, 
  "西撒": 5777, 
  "禁令": 5778, 
  "哈马斯": 5779, 
  "倘": 5780, 
  "宿舍": 5781, 
  "35@@": 5782, 
  "增列": 5783, 
  "红十字会": 5784, 
  "铁@@": 5785, 
  "回@@": 5786, 
  "lo@@": 5787, 
  "过于": 5788, 
  "新兴": 5789, 
  "神": 5790, 
  "人生": 5791, 
  "俱乐部": 5792, 
  "邪教": 5793, 
  "相辅相成": 5794, 
  "第1995": 5795, 
  "杀人": 5796, 
  "质": 5797, 
  "9.@@": 5798, 
  "布": 5799, 
  "1亿": 5800, 
  "简介": 5801, 
  "mo@@": 5802, 
  "大为": 5803, 
  "取缔": 5804, 
  "陈": 5805, 
  "说服": 5806, 
  "归": 5807, 
  "後来": 5808, 
  "停泊": 5809, 
  "37@@": 5810, 
  "欠款": 5811, 
  "家禽": 5812, 
  "基因": 5813, 
  "驳回": 5814, 
  "内政部": 5815, 
  "法郎": 5816, 
  "1973年": 5817, 
  "自豪": 5818, 
  "免税额": 5819, 
  "a/c.5": 5820, 
  "联阵": 5821, 
  "开发署": 5822, 
  "四@@": 5823, 
  "土壤": 5824, 
  "拓展": 5825, 
  "海滩": 5826, 
  "停留": 5827, 
  "就此": 5828, 
  "心情": 5829, 
  "兰@@": 5830, 
  "卷入": 5831, 
  "自动化": 5832, 
  "洛@@": 5833, 
  "摄影": 5834, 
  "证词": 5835, 
  "偷运": 5836, 
  "疟疾": 5837, 
  "跑": 5838, 
  "入住": 5839, 
  "带动": 5840, 
  "伪造": 5841, 
  "夥伴": 5842, 
  "岗位": 5843, 
  "新型": 5844, 
  "交@@": 5845, 
  "保卫": 5846, 
  "南北": 5847, 
  "45@@": 5848, 
  "五时": 5849, 
  "永@@": 5850, 
  "何俊仁": 5851, 
  "助长": 5852, 
  "概括": 5853, 
  "一揽子": 5854, 
  "演员": 5855, 
  "并入": 5856, 
  "34@@": 5857, 
  "戈@@": 5858, 
  "布基纳法索": 5859, 
  "笑": 5860, 
  "诺@@": 5861, 
  "秒": 5862, 
  "急需": 5863, 
  "39@@": 5864, 
  "第687": 5865, 
  "it@@": 5866, 
  "杨森": 5867, 
  "道义": 5868, 
  "复杂性": 5869, 
  "税款": 5870, 
  "税制": 5871, 
  "审裁处": 5872, 
  "总会": 5873, 
  "微型": 5874, 
  "镇压": 5875, 
  "衣服": 5876, 
  "庄严": 5877, 
  "鸡": 5878, 
  "资深": 5879, 
  "然": 5880, 
  "军@@": 5881, 
  "石油气": 5882, 
  "剩下": 5883, 
  "so@@": 5884, 
  "发电": 5885, 
  "马克": 5886, 
  "效用": 5887, 
  "正视": 5888, 
  "部长们": 5889, 
  "树立": 5890, 
  "许": 5891, 
  "乙": 5892, 
  "喝": 5893, 
  "at": 5894, 
  "追究": 5895, 
  "预报": 5896, 
  "想象": 5897, 
  "实用": 5898, 
  "业者": 5899, 
  "阿拉法特": 5900, 
  "正常化": 5901, 
  "反恐怖主义": 5902, 
  "知情": 5903, 
  "带领": 5904, 
  "教育部": 5905, 
  "参议院": 5906, 
  "北京市": 5907, 
  "小国": 5908, 
  "st": 5909, 
  "本质": 5910, 
  "夜": 5911, 
  "前所未有": 5912, 
  "终身": 5913, 
  "占用": 5914, 
  "广阔": 5915, 
  "带头": 5916, 
  "银行业": 5917, 
  "原议案": 5918, 
  "原定": 5919, 
  "好几": 5920, 
  "1976年": 5921, 
  "二十三": 5922, 
  "prst": 5923, 
  "西北": 5924, 
  "木材": 5925, 
  "问责": 5926, 
  "张文光": 5927, 
  "塞人": 5928, 
  "後果": 5929, 
  "应变": 5930, 
  "农场": 5931, 
  "仓库": 5932, 
  "梁耀忠": 5933, 
  "乐团": 5934, 
  "70%": 5935, 
  "搁置": 5936, 
  "星": 5937, 
  "九七": 5938, 
  "之@@": 5939, 
  "中环": 5940, 
  "保护区": 5941, 
  "警察局": 5942, 
  "外贸": 5943, 
  "3000": 5944, 
  "器官": 5945, 
  "害怕": 5946, 
  "后代": 5947, 
  "总的来说": 5948, 
  "二百@@": 5949, 
  "敬意": 5950, 
  "竞争性": 5951, 
  "一连串": 5952, 
  "充当": 5953, 
  "稍后": 5954, 
  "sa@@": 5955, 
  "创伤": 5956, 
  "蒙受": 5957, 
  "外勤": 5958, 
  "医药": 5959, 
  "渔船": 5960, 
  "第10@@": 5961, 
  "抱": 5962, 
  "青@@": 5963, 
  "船长": 5964, 
  "荣誉": 5965, 
  "do@@": 5966, 
  "117": 5967, 
  "运动员": 5968, 
  "挂": 5969, 
  "一度": 5970, 
  "第7@@": 5971, 
  "完毕": 5972, 
  "吸毒": 5973, 
  "el": 5974, 
  "资": 5975, 
  "展出": 5976, 
  "业内": 5977, 
  "劫持": 5978, 
  "东方": 5979, 
  "相符": 5980, 
  "受@@": 5981, 
  "1972年": 5982, 
  "布莱尔": 5983, 
  "幸福": 5984, 
  "ab@@": 5985, 
  "大西洋": 5986, 
  "入@@": 5987, 
  "比@@": 5988, 
  "128": 5989, 
  "手@@": 5990, 
  "圭亚那": 5991, 
  "汲取": 5992, 
  "毛泽东": 5993, 
  "mi@@": 5994, 
  "台@@": 5995, 
  "拆除": 5996, 
  "课税": 5997, 
  "竟": 5998, 
  "顺序": 5999, 
  "ko@@": 6000, 
  "毫无": 6001, 
  "淡水": 6002, 
  "核算": 6003, 
  "韦@@": 6004, 
  "应邀": 6005, 
  "良心": 6006, 
  "款$": 6007, 
  "渡轮": 6008, 
  "容器": 6009, 
  "污染物": 6010, 
  "概要": 6011, 
  "受援国": 6012, 
  "摩尔多瓦": 6013, 
  "开辟": 6014, 
  "花园": 6015, 
  "xv": 6016, 
  "到期": 6017, 
  "祝愿": 6018, 
  "暂": 6019, 
  "二@@": 6020, 
  "讼费": 6021, 
  "骂": 6022, 
  "第9@@": 6023, 
  "民选": 6024, 
  "监测站": 6025, 
  "结构性": 6026, 
  "英镑": 6027, 
  "箱": 6028, 
  "判定": 6029, 
  "关@@": 6030, 
  "公帑": 6031, 
  "处分": 6032, 
  "负起": 6033, 
  "录得": 6034, 
  "受损": 6035, 
  "传票": 6036, 
  "勒@@": 6037, 
  "分列": 6038, 
  "121": 6039, 
  "爱国": 6040, 
  "陈鉴林": 6041, 
  "楼价": 6042, 
  "本@@": 6043, 
  "优点": 6044, 
  "诉诸": 6045, 
  "英@@": 6046, 
  "缺": 6047, 
  "巴林": 6048, 
  "无权": 6049, 
  "长度": 6050, 
  "高峰": 6051, 
  "不可或缺": 6052, 
  "枪": 6053, 
  "形": 6054, 
  "勘探": 6055, 
  "愈": 6056, 
  "填写": 6057, 
  "保": 6058, 
  "燃油": 6059, 
  "抓": 6060, 
  "中型": 6061, 
  "第纳尔": 6062, 
  "试点": 6063, 
  "118": 6064, 
  "1971年": 6065, 
  "时事": 6066, 
  "奥林匹克": 6067, 
  "红色": 6068, 
  "脆弱性": 6069, 
  "小孩": 6070, 
  "可@@": 6071, 
  "123": 6072, 
  "119": 6073, 
  "流@@": 6074, 
  "对应": 6075, 
  "出入境": 6076, 
  "联索": 6077, 
  "140": 6078, 
  "am@@": 6079, 
  "渥太华": 6080, 
  "户外": 6081, 
  "国际性": 6082, 
  "里程碑": 6083, 
  "艾@@": 6084, 
  "机@@": 6085, 
  "过时": 6086, 
  "欧安会": 6087, 
  "下半年": 6088, 
  "乱": 6089, 
  "携手": 6090, 
  "混合": 6091, 
  "防@@": 6092, 
  "失": 6093, 
  "附例": 6094, 
  "为数": 6095, 
  "平静": 6096, 
  "租户": 6097, 
  "回复": 6098, 
  "神@@": 6099, 
  "培育": 6100, 
  "暴露": 6101, 
  "沙龙": 6102, 
  "吉布提": 6103, 
  "按时": 6104, 
  "第十四": 6105, 
  "部落": 6106, 
  "传译": 6107, 
  "致函": 6108, 
  "海域": 6109, 
  "p-5": 6110, 
  "偿付": 6111, 
  "x@@": 6112, 
  "注视": 6113, 
  "漏洞": 6114, 
  "清偿": 6115, 
  "前者": 6116, 
  "as@@": 6117, 
  "加倍": 6118, 
  "夏佳理": 6119, 
  "斡旋": 6120, 
  "黑": 6121, 
  "法文": 6122, 
  "贮存": 6123, 
  "领": 6124, 
  "少女": 6125, 
  "空@@": 6126, 
  "拨给": 6127, 
  "提供者": 6128, 
  "作家": 6129, 
  "联合体": 6130, 
  "巴拉圭": 6131, 
  "进攻": 6132, 
  "心态": 6133, 
  "第十三": 6134, 
  "参选": 6135, 
  "赛": 6136, 
  "库存": 6137, 
  "汉@@": 6138, 
  "信函": 6139, 
  "包机": 6140, 
  "党员": 6141, 
  "绿色": 6142, 
  "选@@": 6143, 
  "爸爸": 6144, 
  "会长": 6145, 
  "八@@": 6146, 
  "士": 6147, 
  "服": 6148, 
  "立方米": 6149, 
  "防火": 6150, 
  "司徒华": 6151, 
  "反腐败": 6152, 
  "备": 6153, 
  "原料": 6154, 
  "闭幕": 6155, 
  "堆": 6156, 
  "难题": 6157, 
  "客": 6158, 
  "之类": 6159, 
  "使馆": 6160, 
  "致意": 6161, 
  "走廊": 6162, 
  "住宿": 6163, 
  "渴望": 6164, 
  "雅@@": 6165, 
  "遣散": 6166, 
  "跟踪": 6167, 
  "述明": 6168, 
  "1970年": 6169, 
  "抢劫": 6170, 
  "分工": 6171, 
  "补": 6172, 
  "ba@@": 6173, 
  "ho@@": 6174, 
  "mar@@": 6175, 
  "配置": 6176, 
  "5亿": 6177, 
  "可疑": 6178, 
  "免受": 6179, 
  "巴布亚新几内亚": 6180, 
  "善意": 6181, 
  "工@@": 6182, 
  "破坏性": 6183, 
  "赫@@": 6184, 
  "续期": 6185, 
  "1960年": 6186, 
  "定为": 6187, 
  "春节": 6188, 
  "博茨瓦纳": 6189, 
  "土@@": 6190, 
  "转到": 6191, 
  "玩": 6192, 
  "饥饿": 6193, 
  "增拨": 6194, 
  "备有": 6195, 
  "90%": 6196, 
  "数百": 6197, 
  "侵权": 6198, 
  "赤贫": 6199, 
  "诉": 6200, 
  "关键性": 6201, 
  "轻": 6202, 
  "合资": 6203, 
  "调解人": 6204, 
  "富裕": 6205, 
  "郊野": 6206, 
  "卡塔尔": 6207, 
  "呈现": 6208, 
  "时速": 6209, 
  "本土": 6210, 
  "装设": 6211, 
  "饮食": 6212, 
  "挑衅": 6213, 
  "幢": 6214, 
  "雷达": 6215, 
  "撒哈拉": 6216, 
  "用尽": 6217, 
  "买方": 6218, 
  "代表们": 6219, 
  "气@@": 6220, 
  "交战": 6221, 
  "频道": 6222, 
  "监视": 6223, 
  "球": 6224, 
  "庭长": 6225, 
  "常见": 6226, 
  "40@@": 6227, 
  "1980年代": 6228, 
  "无可": 6229, 
  "克制": 6230, 
  "te@@": 6231, 
  "有效期": 6232, 
  "干@@": 6233, 
  "史": 6234, 
  "周末": 6235, 
  "换句话说": 6236, 
  "晋升": 6237, 
  "创意": 6238, 
  "毛": 6239, 
  "指@@": 6240, 
  "咱们": 6241, 
  "挤塞": 6242, 
  "奥运会": 6243, 
  "进出": 6244, 
  "斯亚贝巴": 6245, 
  "论据": 6246, 
  "黑@@": 6247, 
  "创业": 6248, 
  "一同": 6249, 
  "售价": 6250, 
  "防空": 6251, 
  "门@@": 6252, 
  "1a": 6253, 
  "航运": 6254, 
  "跨": 6255, 
  "学历": 6256, 
  "国内外": 6257, 
  "迈进": 6258, 
  "乘坐": 6259, 
  "贵": 6260, 
  "邓小平": 6261, 
  "英雄": 6262, 
  "与否": 6263, 
  "订单": 6264, 
  "租": 6265, 
  "it": 6266, 
  "字眼": 6267, 
  "毛病": 6268, 
  "从未": 6269, 
  "前后": 6270, 
  "省份": 6271, 
  "传达": 6272, 
  "逃避": 6273, 
  "结社": 6274, 
  "心脏病": 6275, 
  "郑@@": 6276, 
  "传递": 6277, 
  "战机": 6278, 
  "奴役": 6279, 
  "印制": 6280, 
  "第1993": 6281, 
  "公吨": 6282, 
  "46@@": 6283, 
  "综合症": 6284, 
  "缩减": 6285, 
  "限期": 6286, 
  "後@@": 6287, 
  "不必": 6288, 
  "武@@": 6289, 
  "会议厅": 6290, 
  "清盘": 6291, 
  "9%": 6292, 
  "见面": 6293, 
  "母语": 6294, 
  "老人家": 6295, 
  "第十五": 6296, 
  "京": 6297, 
  "连@@": 6298, 
  "全盘": 6299, 
  "50万": 6300, 
  "贫富": 6301, 
  "女工": 6302, 
  "建@@": 6303, 
  "简易": 6304, 
  "计画": 6305, 
  "便于": 6306, 
  "云": 6307, 
  "一九八六年": 6308, 
  "驻科": 6309, 
  "田@@": 6310, 
  "忙": 6311, 
  "减缓": 6312, 
  "巡查": 6313, 
  "钟": 6314, 
  "街市": 6315, 
  "养恤": 6316, 
  "124": 6317, 
  "总量": 6318, 
  "波多黎各": 6319, 
  "受过": 6320, 
  "於是": 6321, 
  "创": 6322, 
  "w": 6323, 
  "丁": 6324, 
  "品牌": 6325, 
  "动作": 6326, 
  "管制站": 6327, 
  "落后": 6328, 
  "暂定": 6329, 
  "慢慢": 6330, 
  "尊敬": 6331, 
  "试": 6332, 
  "叶@@": 6333, 
  "道@@": 6334, 
  "a号": 6335, 
  "教科书": 6336, 
  "单@@": 6337, 
  "b节": 6338, 
  "二十二": 6339, 
  "一律": 6340, 
  "托": 6341, 
  "17.@@": 6342, 
  "半数": 6343, 
  "高龄": 6344, 
  "注明": 6345, 
  "善政": 6346, 
  "上空": 6347, 
  "50@@": 6348, 
  "时报": 6349, 
  "sr.@@": 6350, 
  "党委": 6351, 
  "残酷": 6352, 
  "获释": 6353, 
  "消防处": 6354, 
  "担负": 6355, 
  "产地": 6356, 
  "带到": 6357, 
  "联利": 6358, 
  "违规": 6359, 
  "减贫": 6360, 
  "普通法": 6361, 
  "旅馆": 6362, 
  "保管": 6363, 
  "苦": 6364, 
  "乃至": 6365, 
  "亲切": 6366, 
  "曼@@": 6367, 
  "来临": 6368, 
  "前线": 6369, 
  "有机": 6370, 
  "李家祥": 6371, 
  "蒂@@": 6372, 
  "稍": 6373, 
  "新疆": 6374, 
  "百分点": 6375, 
  "住院": 6376, 
  "前夕": 6377, 
  "疏忽": 6378, 
  "全额": 6379, 
  "半@@": 6380, 
  "a/ac.109": 6381, 
  "高昂": 6382, 
  "为准": 6383, 
  "旺角": 6384, 
  "墙": 6385, 
  "二十八": 6386, 
  "杰@@": 6387, 
  "挖掘": 6388, 
  "署理": 6389, 
  "实例": 6390, 
  "模拟": 6391, 
  "接管": 6392, 
  "爆炸物": 6393, 
  "名@@": 6394, 
  "su@@": 6395, 
  "尤为": 6396, 
  "全日制": 6397, 
  "多巴哥": 6398, 
  "中巴": 6399, 
  "人居": 6400, 
  "何@@": 6401, 
  "126": 6402, 
  "作风": 6403, 
  "拿出": 6404, 
  "脸": 6405, 
  "排@@": 6406, 
  "马达加斯加": 6407, 
  "所属": 6408, 
  "检察": 6409, 
  "副总统": 6410, 
  "动乱": 6411, 
  "刘江华": 6412, 
  "抵销": 6413, 
  "领事": 6414, 
  "多么": 6415, 
  "进而": 6416, 
  "贾@@": 6417, 
  "屋宇署": 6418, 
  "尤": 6419, 
  "男孩": 6420, 
  "欠缺": 6421, 
  "立@@": 6422, 
  "不准": 6423, 
  "事例": 6424, 
  "自治区": 6425, 
  "共处": 6426, 
  "高效率": 6427, 
  "渔民": 6428, 
  "爱@@": 6429, 
  "减至": 6430, 
  "田": 6431, 
  "容纳": 6432, 
  "广@@": 6433, 
  "be@@": 6434, 
  "至为": 6435, 
  "欺诈": 6436, 
  "论文": 6437, 
  "特立尼达": 6438, 
  "拟备": 6439, 
  "信用": 6440, 
  "思维": 6441, 
  "延伸": 6442, 
  "文献": 6443, 
  "et": 6444, 
  "无限期": 6445, 
  "借贷": 6446, 
  "注射": 6447, 
  "停": 6448, 
  "果断": 6449, 
  "游说": 6450, 
  "c.b.e.": 6451, 
  "尖沙咀": 6452, 
  "感激": 6453, 
  "赞成票": 6454, 
  "赌博": 6455, 
  "追加": 6456, 
  "观塘": 6457, 
  "空前": 6458, 
  "局部": 6459, 
  "新闻处": 6460, 
  "160": 6461, 
  "不明": 6462, 
  "团伙": 6463, 
  "周边": 6464, 
  "被害人": 6465, 
  "18.@@": 6466, 
  "构思": 6467, 
  "构架": 6468, 
  "on@@": 6469, 
  "富@@": 6470, 
  "瓦": 6471, 
  "135": 6472, 
  "温度": 6473, 
  "贵国": 6474, 
  "梁@@": 6475, 
  "库": 6476, 
  "后@@": 6477, 
  "激励": 6478, 
  "212": 6479, 
  "转介": 6480, 
  "三百@@": 6481, 
  "一九八八年": 6482, 
  "核对": 6483, 
  "车队": 6484, 
  "z": 6485, 
  "保险业": 6486, 
  "货量": 6487, 
  "三合会": 6488, 
  "一共": 6489, 
  "侵入": 6490, 
  "灾区": 6491, 
  "此时": 6492, 
  "怎": 6493, 
  "假日": 6494, 
  "上班": 6495, 
  "呈": 6496, 
  "改@@": 6497, 
  "多国": 6498, 
  "恩": 6499, 
  "火@@": 6500, 
  "联会": 6501, 
  "家务": 6502, 
  "北美": 6503, 
  "等到": 6504, 
  "籍": 6505, 
  "一千": 6506, 
  "增订": 6507, 
  "托管": 6508, 
  "座位": 6509, 
  "非常任": 6510, 
  "益处": 6511, 
  "麦@@": 6512, 
  "房间": 6513, 
  "士@@": 6514, 
  "子@@": 6515, 
  "162": 6516, 
  "探访": 6517, 
  "预留": 6518, 
  "结余": 6519, 
  "格局": 6520, 
  "门诊": 6521, 
  "普选": 6522, 
  "机能": 6523, 
  "核@@": 6524, 
  "圈": 6525, 
  "园": 6526, 
  "2亿": 6527, 
  "浏览": 6528, 
  "老板": 6529, 
  "壁垒": 6530, 
  "反复": 6531, 
  "互": 6532, 
  "占领军": 6533, 
  "历来": 6534, 
  "委员长": 6535, 
  "3时": 6536, 
  "答应": 6537, 
  "日程": 6538, 
  "导航": 6539, 
  "一九八九年": 6540, 
  "生命权": 6541, 
  "科目": 6542, 
  "懂": 6543, 
  "参数": 6544, 
  "也好": 6545, 
  "章节": 6546, 
  "南极": 6547, 
  "派别": 6548, 
  "贿赂": 6549, 
  "赤道": 6550, 
  "清拆": 6551, 
  "飓风": 6552, 
  "年中": 6553, 
  "年青人": 6554, 
  "驾车": 6555, 
  "抑或": 6556, 
  "20万": 6557, 
  "加蓬": 6558, 
  "酒": 6559, 
  "调查表": 6560, 
  "争": 6561, 
  "制@@": 6562, 
  "债权": 6563, 
  "明文": 6564, 
  "学额": 6565, 
  "优先权": 6566, 
  "好好": 6567, 
  "le": 6568, 
  "干线": 6569, 
  "可观": 6570, 
  "北区": 6571, 
  "泰@@": 6572, 
  "乐意": 6573, 
  "差额": 6574, 
  "郑家富": 6575, 
  "头@@": 6576, 
  "远见": 6577, 
  "零件": 6578, 
  "叶": 6579, 
  "2006年": 6580, 
  "www.@@": 6581, 
  "深受": 6582, 
  "筹款": 6583, 
  "敌人": 6584, 
  "节日": 6585, 
  "反过来": 6586, 
  "推定": 6587, 
  "求助": 6588, 
  "有毒": 6589, 
  "单身": 6590, 
  "重量": 6591, 
  "齐@@": 6592, 
  "日元": 6593, 
  "落马洲": 6594, 
  "1969年": 6595, 
  "延": 6596, 
  "上去": 6597, 
  "日渐": 6598, 
  "案情": 6599, 
  "送到": 6600, 
  "ta@@": 6601, 
  "状": 6602, 
  "住宅区": 6603, 
  "物种": 6604, 
  "拘禁": 6605, 
  "金钟道": 6606, 
  "病例": 6607, 
  "含量": 6608, 
  "直布罗陀": 6609, 
  "剂": 6610, 
  "北角": 6611, 
  "外面": 6612, 
  "被占领土": 6613, 
  "生产者": 6614, 
  "搜索": 6615, 
  "化@@": 6616, 
  "侦查": 6617, 
  "足球": 6618, 
  "19.@@": 6619, 
  "统计司": 6620, 
  "无力": 6621, 
  "127": 6622, 
  "1978": 6623, 
  "责制": 6624, 
  "㈣": 6625, 
  "力@@": 6626, 
  "防范": 6627, 
  "理应": 6628, 
  "六@@": 6629, 
  "义": 6630, 
  "接@@": 6631, 
  "人权法": 6632, 
  "水资源": 6633, 
  "慢": 6634, 
  "脚注": 6635, 
  "运输局": 6636, 
  "竞争法": 6637, 
  "陆地": 6638, 
  "经@@": 6639, 
  "海运": 6640, 
  "r.@@": 6641, 
  "关怀": 6642, 
  "联委会": 6643, 
  "第五十八": 6644, 
  "馆": 6645, 
  "bo@@": 6646, 
  "徐@@": 6647, 
  "撤消": 6648, 
  "不利于": 6649, 
  "大专": 6650, 
  "付给": 6651, 
  "配套": 6652, 
  "定@@": 6653, 
  "漫长": 6654, 
  "二十多": 6655, 
  "蓬勃": 6656, 
  "放置": 6657, 
  "学术界": 6658, 
  "数千": 6659, 
  "慎重": 6660, 
  "射击": 6661, 
  "单仲偕": 6662, 
  "宝@@": 6663, 
  "赵@@": 6664, 
  "po@@": 6665, 
  "湖": 6666, 
  "不容": 6667, 
  "极端主义": 6668, 
  "抽样": 6669, 
  "进去": 6670, 
  "喀布尔": 6671, 
  "包围": 6672, 
  "不宜": 6673, 
  "二十七": 6674, 
  "线路": 6675, 
  "th@@": 6676, 
  "前南": 6677, 
  "审计员": 6678, 
  "防卫": 6679, 
  "141": 6680, 
  "战胜": 6681, 
  "百姓": 6682, 
  "批准书": 6683, 
  "抑制": 6684, 
  "备受": 6685, 
  "支持者": 6686, 
  "惊人": 6687, 
  "侦察": 6688, 
  "地质": 6689, 
  "立案": 6690, 
  "大赦": 6691, 
  "巿场": 6692, 
  "扎@@": 6693, 
  "转运": 6694, 
  "132": 6695, 
  "登@@": 6696, 
  "表述": 6697, 
  "凭藉": 6698, 
  "术语": 6699, 
  "今晚": 6700, 
  "务求": 6701, 
  "毁坏": 6702, 
  "极度": 6703, 
  "书籍": 6704, 
  "131": 6705, 
  "含糊": 6706, 
  "00": 6707, 
  "发明": 6708, 
  "九@@": 6709, 
  "宣告": 6710, 
  "改良": 6711, 
  "财政部": 6712, 
  "租约": 6713, 
  "肺炎": 6714, 
  "保育": 6715, 
  "坚实": 6716, 
  "遂": 6717, 
  "混淆": 6718, 
  "尼日尔": 6719, 
  "相称": 6720, 
  "界线": 6721, 
  "基石": 6722, 
  "赚": 6723, 
  "探测": 6724, 
  "懂得": 6725, 
  "董": 6726, 
  "考": 6727, 
  "肇事者": 6728, 
  "马拉维": 6729, 
  "gu@@": 6730, 
  "阿尔@@": 6731, 
  "回避": 6732, 
  "余地": 6733, 
  "追踪": 6734, 
  "防护": 6735, 
  "vi@@": 6736, 
  "比重": 6737, 
  "小泉": 6738, 
  "听说": 6739, 
  "调集": 6740, 
  "副主任": 6741, 
  "委": 6742, 
  "10000": 6743, 
  "老百姓": 6744, 
  "台风": 6745, 
  "3亿": 6746, 
  "超@@": 6747, 
  "爱滋病": 6748, 
  "政治局": 6749, 
  "盘": 6750, 
  "再者": 6751, 
  "呈请": 6752, 
  "方@@": 6753, 
  "承运人": 6754, 
  "不可": 6755, 
  "七@@": 6756, 
  "牢固": 6757, 
  "除此之外": 6758, 
  "皇家": 6759, 
  "属下": 6760, 
  "造福": 6761, 
  "外币": 6762, 
  "社署": 6763, 
  "二十@@": 6764, 
  "从前": 6765, 
  "带@@": 6766, 
  "甲板": 6767, 
  "火灾": 6768, 
  "大屿山": 6769, 
  "教@@": 6770, 
  "大气": 6771, 
  "第二十四": 6772, 
  "进@@": 6773, 
  "深深": 6774, 
  "固然": 6775, 
  "讲述": 6776, 
  "承@@": 6777, 
  "索": 6778, 
  "现存": 6779, 
  "75@@": 6780, 
  "享": 6781, 
  "宪政": 6782, 
  "报@@": 6783, 
  "齐": 6784, 
  "写信": 6785, 
  "保守": 6786, 
  "差价": 6787, 
  "代@@": 6788, 
  "货": 6789, 
  "征收": 6790, 
  "森": 6791, 
  "简称": 6792, 
  "团聚": 6793, 
  "掩盖": 6794, 
  "社工": 6795, 
  "居留": 6796, 
  "常委": 6797, 
  "桑@@": 6798, 
  "化验": 6799, 
  "调@@": 6800, 
  "200万": 6801, 
  "来往": 6802, 
  "减薪": 6803, 
  "阿": 6804, 
  "单车": 6805, 
  "菜": 6806, 
  "军事化": 6807, 
  "宽容": 6808, 
  "输出": 6809, 
  "说来": 6810, 
  "罢工": 6811, 
  "世@@": 6812, 
  "亏损": 6813, 
  "前@@": 6814, 
  "四分之一": 6815, 
  "天然": 6816, 
  "倒退": 6817, 
  "成员们": 6818, 
  "登": 6819, 
  "讯号": 6820, 
  "修建": 6821, 
  "苏": 6822, 
  "品种": 6823, 
  "避孕": 6824, 
  "联席": 6825, 
  "01": 6826, 
  "不便": 6827, 
  "处以": 6828, 
  "卖方": 6829, 
  "台商": 6830, 
  "战略性": 6831, 
  "情势": 6832, 
  "谓": 6833, 
  "安老院": 6834, 
  "薄弱": 6835, 
  "el@@": 6836, 
  "签名": 6837, 
  "5万": 6838, 
  "白宫": 6839, 
  "交存": 6840, 
  "48@@": 6841, 
  "整合": 6842, 
  "列@@": 6843, 
  "施@@": 6844, 
  "十一时": 6845, 
  "孙@@": 6846, 
  "pp.@@": 6847, 
  "注销": 6848, 
  "强劲": 6849, 
  "一万": 6850, 
  "出台": 6851, 
  "财团": 6852, 
  "外商": 6853, 
  "ne@@": 6854, 
  "限制性": 6855, 
  "创造性": 6856, 
  "百@@": 6857, 
  "海上": 6858, 
  "134": 6859, 
  "盈利": 6860, 
  "搭": 6861, 
  "零售业": 6862, 
  "卓越": 6863, 
  "江@@": 6864, 
  "整理": 6865, 
  "刘": 6866, 
  "at@@": 6867, 
  "133": 6868, 
  "统计局": 6869, 
  "受益者": 6870, 
  "合计": 6871, 
  "自备": 6872, 
  "库务局": 6873, 
  "129": 6874, 
  "一一": 6875, 
  "藏": 6876, 
  "麻委会": 6877, 
  "49@@": 6878, 
  "身心": 6879, 
  "农@@": 6880, 
  "疑虑": 6881, 
  "验证": 6882, 
  "157": 6883, 
  "发展部": 6884, 
  "汇价": 6885, 
  "就读": 6886, 
  "军委": 6887, 
  "暗示": 6888, 
  "编入": 6889, 
  "受害国": 6890, 
  "福": 6891, 
  "反正": 6892, 
  "赖斯": 6893, 
  ".1": 6894, 
  "bu@@": 6895, 
  "不行": 6896, 
  "物理": 6897, 
  "con@@": 6898, 
  "问卷": 6899, 
  "警报": 6900, 
  "流失": 6901, 
  "量度": 6902, 
  "校舍": 6903, 
  "食环署": 6904, 
  "犹太人": 6905, 
  "劳@@": 6906, 
  "奇": 6907, 
  "堕胎": 6908, 
  "物流": 6909, 
  "鲍威尔": 6910, 
  "夏@@": 6911, 
  "斯普斯卡": 6912, 
  "诊断": 6913, 
  "误导": 6914, 
  "警惕": 6915, 
  "征税": 6916, 
  "本法院": 6917, 
  "年鉴": 6918, 
  "逾期": 6919, 
  "有损": 6920, 
  "食物局": 6921, 
  "车主": 6922, 
  "总之": 6923, 
  "排水": 6924, 
  "使团": 6925, 
  "文盲": 6926, 
  "实况": 6927, 
  "雅": 6928, 
  "213": 6929, 
  "4000": 6930, 
  "传@@": 6931, 
  "责任制": 6932, 
  "a/ac.105": 6933, 
  "原@@": 6934, 
  "目": 6935, 
  "中医": 6936, 
  "逃离": 6937, 
  "二十九": 6938, 
  "停战": 6939, 
  "异常": 6940, 
  "人权署": 6941, 
  "换@@": 6942, 
  "室内": 6943, 
  "人事费": 6944, 
  "纯": 6945, 
  "犹如": 6946, 
  "战斗机": 6947, 
  "理性": 6948, 
  "年代": 6949, 
  "占据": 6950, 
  "众": 6951, 
  "十几": 6952, 
  "率先": 6953, 
  "画面": 6954, 
  "支票": 6955, 
  "判例": 6956, 
  "完整性": 6957, 
  "眼睛": 6958, 
  "长久": 6959, 
  "上任": 6960, 
  "松": 6961, 
  "助": 6962, 
  "救助": 6963, 
  "宽": 6964, 
  "订出": 6965, 
  "国情": 6966, 
  "16.@@": 6967, 
  "航天局": 6968, 
  "开创": 6969, 
  "专长": 6970, 
  "针对性": 6971, 
  "蓝色": 6972, 
  "商场": 6973, 
  "打死": 6974, 
  "终於": 6975, 
  "释义": 6976, 
  "季节性": 6977, 
  "几点": 6978, 
  "短暂": 6979, 
  "政务": 6980, 
  "丁@@": 6981, 
  "上台": 6982, 
  "伊斯坦布尔": 6983, 
  "挫折": 6984, 
  "所长": 6985, 
  "颇为": 6986, 
  "弱点": 6987, 
  "第十六": 6988, 
  "调配": 6989, 
  "帐": 6990, 
  "样": 6991, 
  "物件": 6992, 
  "玉@@": 6993, 
  "督察": 6994, 
  "152": 6995, 
  "工商局": 6996, 
  "战士": 6997, 
  "定稿": 6998, 
  "151": 6999, 
  "实习": 7000, 
  "15.@@": 7001, 
  "受益人": 7002, 
  "口号": 7003, 
  "华侨": 7004, 
  "调拨": 7005, 
  "编译": 7006, 
  "装@@": 7007, 
  "137": 7008, 
  "演说": 7009, 
  "康@@": 7010, 
  "沃@@": 7011, 
  "提早": 7012, 
  "废气": 7013, 
  "投@@": 7014, 
  "票据": 7015, 
  "存@@": 7016, 
  "切@@": 7017, 
  "一生": 7018, 
  "收养": 7019, 
  "政变": 7020, 
  "佣工": 7021, 
  "起点": 7022, 
  "器材": 7023, 
  "应得": 7024, 
  "神圣": 7025, 
  "10.@@": 7026, 
  "当初": 7027, 
  "董事局": 7028, 
  "三十一": 7029, 
  "德黑兰": 7030, 
  "选手": 7031, 
  "愉快": 7032, 
  "口岸": 7033, 
  "一百@@": 7034, 
  "出入": 7035, 
  "年份": 7036, 
  "特派": 7037, 
  "选择性": 7038, 
  "太阳": 7039, 
  "舞蹈": 7040, 
  "抵消": 7041, 
  "20.@@": 7042, 
  "12.@@": 7043, 
  "应@@": 7044, 
  "欧@@": 7045, 
  "边缘化": 7046, 
  "邮政局": 7047, 
  "麻烦": 7048, 
  "走出": 7049, 
  "调查科": 7050, 
  "教堂": 7051, 
  "众议院": 7052, 
  "阿拉伯人": 7053, 
  "降落": 7054, 
  "国防军": 7055, 
  "异": 7056, 
  "叫做": 7057, 
  "十万": 7058, 
  "径": 7059, 
  "霍@@": 7060, 
  "紧接": 7061, 
  "欣慰": 7062, 
  "放@@": 7063, 
  "急": 7064, 
  "先後": 7065, 
  "or@@": 7066, 
  "黑人": 7067, 
  "象征": 7068, 
  "教员": 7069, 
  "大学生": 7070, 
  "玻璃": 7071, 
  "联大": 7072, 
  "小贩": 7073, 
  "景": 7074, 
  "美丽": 7075, 
  "q": 7076, 
  "南区": 7077, 
  "一致性": 7078, 
  "70@@": 7079, 
  "温@@": 7080, 
  "意向": 7081, 
  "法典": 7082, 
  "密度": 7083, 
  "ci@@": 7084, 
  "波恩": 7085, 
  "坦率": 7086, 
  "e.@@": 7087, 
  "稳步": 7088, 
  "跨部门": 7089, 
  "连贯": 7090, 
  "香烟": 7091, 
  "深@@": 7092, 
  "ac@@": 7093, 
  "崩溃": 7094, 
  "分成": 7095, 
  "返": 7096, 
  "新喀里多尼亚": 7097, 
  "皮": 7098, 
  "综管": 7099, 
  "协商会": 7100, 
  "增@@": 7101, 
  "邦": 7102, 
  "仪": 7103, 
  "包@@": 7104, 
  "列於": 7105, 
  "a/ac.254": 7106, 
  "77@@": 7107, 
  "到处": 7108, 
  "陆军": 7109, 
  "百分之@@": 7110, 
  "火车": 7111, 
  "一九八七年": 7112, 
  "兵力": 7113, 
  "炸药": 7114, 
  "教徒": 7115, 
  "车站": 7116, 
  "潮流": 7117, 
  "go@@": 7118, 
  "弄": 7119, 
  "运@@": 7120, 
  "租客": 7121, 
  "许@@": 7122, 
  "平稳": 7123, 
  "吴霭仪": 7124, 
  "诺": 7125, 
  "频率": 7126, 
  "施": 7127, 
  "记名": 7128, 
  "兴": 7129, 
  "可信": 7130, 
  "志@@": 7131, 
  "避难": 7132, 
  "郭@@": 7133, 
  "便宜": 7134, 
  "图片": 7135, 
  "灾民": 7136, 
  "女生": 7137, 
  "回去": 7138, 
  "投票站": 7139, 
  "遗留": 7140, 
  "即便": 7141, 
  "解": 7142, 
  "响": 7143, 
  "太@@": 7144, 
  "费@@": 7145, 
  "床": 7146, 
  "实@@": 7147, 
  "禁区": 7148, 
  "表态": 7149, 
  "182": 7150, 
  "新任": 7151, 
  "离境": 7152, 
  "座标": 7153, 
  "移": 7154, 
  "控罪": 7155, 
  "千@@": 7156, 
  "榜样": 7157, 
  "竭尽": 7158, 
  "陈伟业": 7159, 
  "复@@": 7160, 
  "三角洲": 7161, 
  "生产性": 7162, 
  "提法": 7163, 
  "国营": 7164, 
  "云@@": 7165, 
  "第59": 7166, 
  "歪曲": 7167, 
  "空袭": 7168, 
  "视察团": 7169, 
  "就任": 7170, 
  "33@@": 7171, 
  "连任": 7172, 
  "放缓": 7173, 
  "杯": 7174, 
  "旗帜": 7175, 
  "超逾": 7176, 
  "就算": 7177, 
  "绝大部分": 7178, 
  "高於": 7179, 
  "中旬": 7180, 
  "检查站": 7181, 
  "煤气": 7182, 
  "介绍性": 7183, 
  "夫@@": 7184, 
  "伯@@": 7185, 
  "酬金": 7186, 
  "显而易见": 7187, 
  "北欧": 7188, 
  "顿": 7189, 
  "情事": 7190, 
  "自主权": 7191, 
  "蒙特利尔": 7192, 
  "214": 7193, 
  "信@@": 7194, 
  "私立": 7195, 
  "数@@": 7196, 
  "da@@": 7197, 
  "日历": 7198, 
  "不如": 7199, 
  "乍得": 7200, 
  "工场": 7201, 
  "上月": 7202, 
  "抱有": 7203, 
  "斟酌": 7204, 
  "限定": 7205, 
  "陆恭蕙": 7206, 
  "工务局": 7207, 
  "大湖区": 7208, 
  "下落": 7209, 
  "财物": 7210, 
  "科学院": 7211, 
  "生育率": 7212, 
  "11.@@": 7213, 
  "估算": 7214, 
  "邓兆棠": 7215, 
  "227": 7216, 
  "采": 7217, 
  "所在国": 7218, 
  "ma": 7219, 
  "起因": 7220, 
  "000万": 7221, 
  "冬季": 7222, 
  "野生": 7223, 
  "宇宙": 7224, 
  "过於": 7225, 
  "民协": 7226, 
  "成千上万": 7227, 
  "限於": 7228, 
  "航线": 7229, 
  "运往": 7230, 
  "少於": 7231, 
  "海员": 7232, 
  "阿曼": 7233, 
  "添加": 7234, 
  "pc": 7235, 
  "138": 7236, 
  "聚会": 7237, 
  "高出": 7238, 
  "毒药": 7239, 
  "结论性": 7240, 
  "挂钩": 7241, 
  "临床": 7242, 
  "136": 7243, 
  "行列": 7244, 
  "刀": 7245, 
  "词语": 7246, 
  "业已": 7247, 
  "珠江": 7248, 
  "住屋": 7249, 
  "路面": 7250, 
  "士气": 7251, 
  "器具": 7252, 
  "野蛮": 7253, 
  "第十八": 7254, 
  "1963年": 7255, 
  "高中": 7256, 
  "广为": 7257, 
  "代理商": 7258, 
  "6000": 7259, 
  "欺骗": 7260, 
  "vi": 7261, 
  "du@@": 7262, 
  "免于": 7263, 
  "大门": 7264, 
  "飞@@": 7265, 
  "追溯力": 7266, 
  "均等": 7267, 
  "游": 7268, 
  "声誉": 7269, 
  "好转": 7270, 
  "通行": 7271, 
  "种群": 7272, 
  "原告": 7273, 
  "拍卖": 7274, 
  "另行": 7275, 
  "视作": 7276, 
  "lu@@": 7277, 
  "硬件": 7278, 
  "辩解": 7279, 
  "薪": 7280, 
  "调低": 7281, 
  "孕妇": 7282, 
  "车@@": 7283, 
  "荣": 7284, 
  "牛": 7285, 
  "全局": 7286, 
  "概览": 7287, 
  "往返": 7288, 
  "督导": 7289, 
  "研发": 7290, 
  "□@@": 7291, 
  "何钟泰": 7292, 
  "人工": 7293, 
  "遵行": 7294, 
  "姐妹": 7295, 
  "时效": 7296, 
  "co": 7297, 
  "制度化": 7298, 
  "梦想": 7299, 
  "草图": 7300, 
  "4亿": 7301, 
  "料": 7302, 
  "事物": 7303, 
  "穷": 7304, 
  "体会": 7305, 
  "色彩": 7306, 
  "饮水": 7307, 
  "八十": 7308, 
  "1951年": 7309, 
  "失@@": 7310, 
  "肉": 7311, 
  "<": 7312, 
  "展现": 7313, 
  "行情": 7314, 
  "祝": 7315, 
  "变@@": 7316, 
  "古": 7317, 
  "充实": 7318, 
  "待决": 7319, 
  "什@@": 7320, 
  "广播局": 7321, 
  "备用": 7322, 
  "毛@@": 7323, 
  "来信": 7324, 
  "古迹": 7325, 
  "调查员": 7326, 
  "q@@": 7327, 
  "中医药": 7328, 
  "伴随": 7329, 
  "东北": 7330, 
  "鱼@@": 7331, 
  "出身": 7332, 
  "泊车": 7333, 
  "战俘": 7334, 
  "聆听": 7335, 
  "管理处": 7336, 
  "机组": 7337, 
  "单亲": 7338, 
  "21.@@": 7339, 
  "研究员": 7340, 
  "定出": 7341, 
  "开幕式": 7342, 
  "养@@": 7343, 
  "动@@": 7344, 
  "筹委会": 7345, 
  "汇集": 7346, 
  "追溯": 7347, 
  "传": 7348, 
  "时@@": 7349, 
  "毁灭": 7350, 
  "五百": 7351, 
  "性能": 7352, 
  "有趣": 7353, 
  "嘉@@": 7354, 
  "解@@": 7355, 
  "56@@": 7356, 
  "可靠性": 7357, 
  "委派": 7358, 
  "蒙@@": 7359, 
  "叶国谦": 7360, 
  "洲": 7361, 
  "土库曼斯坦": 7362, 
  "换取": 7363, 
  "网@@": 7364, 
  "经济局": 7365, 
  "答辩权": 7366, 
  "理@@": 7367, 
  "分期": 7368, 
  "三百": 7369, 
  "no@@": 7370, 
  "凯@@": 7371, 
  "工程署": 7372, 
  "积压": 7373, 
  "c.6": 7374, 
  "四百@@": 7375, 
  "局限": 7376, 
  "操纵": 7377, 
  "交谈": 7378, 
  "补@@": 7379, 
  "五万": 7380, 
  "注入": 7381, 
  "47@@": 7382, 
  "不符": 7383, 
  "8亿": 7384, 
  "工业界": 7385, 
  "宽减": 7386, 
  "邮递": 7387, 
  "大胆": 7388, 
  "小额": 7389, 
  "背后": 7390, 
  "亿": 7391, 
  "联同": 7392, 
  "理会": 7393, 
  "搬迁": 7394, 
  "会场": 7395, 
  "运动会": 7396, 
  "背": 7397, 
  "过渡期": 7398, 
  "宣布员": 7399, 
  "自力更生": 7400, 
  "九八年": 7401, 
  "肩负": 7402, 
  "跨境": 7403, 
  "发票": 7404, 
  "若然": 7405, 
  "三通": 7406, 
  "第57": 7407, 
  "商贸": 7408, 
  "抵押": 7409, 
  "卡车": 7410, 
  "饮用水": 7411, 
  "＝＝": 7412, 
  "口@@": 7413, 
  "极力": 7414, 
  "战时": 7415, 
  "检测": 7416, 
  "如@@": 7417, 
  "萨": 7418, 
  "鼓掌": 7419, 
  "一点@@": 7420, 
  "备件": 7421, 
  "备存": 7422, 
  "建议书": 7423, 
  "置业": 7424, 
  "借鉴": 7425, 
  "非洲人": 7426, 
  "里约热内卢": 7427, 
  "多久": 7428, 
  "hiv": 7429, 
  "眼前": 7430, 
  "行之有效": 7431, 
  "顶": 7432, 
  "工序": 7433, 
  "汇兑": 7434, 
  "天主教": 7435, 
  "西贡": 7436, 
  "调整数": 7437, 
  "百分率": 7438, 
  "144": 7439, 
  "共享": 7440, 
  "画@@": 7441, 
  "﹐": 7442, 
  "那天": 7443, 
  "研究院": 7444, 
  "突击": 7445, 
  "辉": 7446, 
  "领先": 7447, 
  "推销": 7448, 
  "亲民": 7449, 
  "时段": 7450, 
  "机电": 7451, 
  "sh@@": 7452, 
  "专科": 7453, 
  "220": 7454, 
  "不等": 7455, 
  "环@@": 7456, 
  "偿债": 7457, 
  "筹办": 7458, 
  "停滞": 7459, 
  "146": 7460, 
  "私家": 7461, 
  "屋村": 7462, 
  "覆核": 7463, 
  "胜": 7464, 
  "13.@@": 7465, 
  "甄选": 7466, 
  "二零零六年": 7467, 
  "训练局": 7468, 
  "董事长": 7469, 
  "142": 7470, 
  "编配": 7471, 
  "概况": 7472, 
  "水管": 7473, 
  "part": 7474, 
  "念": 7475, 
  "涵义": 7476, 
  "伦@@": 7477, 
  "供求": 7478, 
  "第14@@": 7479, 
  "存有": 7480, 
  "男童": 7481, 
  "第1994": 7482, 
  "01月": 7483, 
  "要么": 7484, 
  "静止": 7485, 
  "罗致光": 7486, 
  "鞋": 7487, 
  "哲学": 7488, 
  "校董会": 7489, 
  "胁迫": 7490, 
  "第58": 7491, 
  "官处": 7492, 
  "警署": 7493, 
  "悬而未决": 7494, 
  "朱□基": 7495, 
  "问候": 7496, 
  "陆": 7497, 
  "开枪": 7498, 
  "1967": 7499, 
  "责": 7500, 
  "145": 7501, 
  "年纪": 7502, 
  "奴隶制": 7503, 
  "经纪": 7504, 
  "战场": 7505, 
  "例行": 7506, 
  "逢": 7507, 
  "扶持": 7508, 
  "奥运": 7509, 
  "姿态": 7510, 
  "祸害": 7511, 
  "22.@@": 7512, 
  "防": 7513, 
  "起见": 7514, 
  "梦": 7515, 
  "勒": 7516, 
  "官@@": 7517, 
  "善用": 7518, 
  "科菲": 7519, 
  "葵涌": 7520, 
  "ag@@": 7521, 
  "抚养": 7522, 
  "引@@": 7523, 
  "回事": 7524, 
  "观看": 7525, 
  "专@@": 7526, 
  "158": 7527, 
  "家乡": 7528, 
  "赖": 7529, 
  "游@@": 7530, 
  "设於": 7531, 
  "58@@": 7532, 
  "江苏": 7533, 
  "雷": 7534, 
  "罗湖": 7535, 
  "解体": 7536, 
  "开启": 7537, 
  "交易商": 7538, 
  "bbs": 7539, 
  "第1514": 7540, 
  "发布会": 7541, 
  "快乐": 7542, 
  "26.@@": 7543, 
  "普通话": 7544, 
  "食用": 7545, 
  "推@@": 7546, 
  "专上": 7547, 
  "l.1": 7548, 
  "遇": 7549, 
  "蔡素玉": 7550, 
  "气温": 7551, 
  "ts": 7552, 
  "协调厅": 7553, 
  "生署": 7554, 
  "树木": 7555, 
  "有线": 7556, 
  "奥斯陆": 7557, 
  "有助於": 7558, 
  "音乐会": 7559, 
  "修": 7560, 
  "偏远": 7561, 
  "切尔诺贝利": 7562, 
  "印度洋": 7563, 
  "招致": 7564, 
  "故障": 7565, 
  "吃饭": 7566, 
  "地段": 7567, 
  "通行证": 7568, 
  "只好": 7569, 
  "199": 7570, 
  "申诉人": 7571, 
  "拿到": 7572, 
  "血@@": 7573, 
  "大法官": 7574, 
  "意见书": 7575, 
  "161": 7576, 
  "东南欧": 7577, 
  "轻易": 7578, 
  "东斯": 7579, 
  "布置": 7580, 
  "部件": 7581, 
  "扶贫": 7582, 
  "工地": 7583, 
  "管@@": 7584, 
  "自置": 7585, 
  "消费品": 7586, 
  "迪": 7587, 
  "审定": 7588, 
  "撰写": 7589, 
  "te": 7590, 
  "七十": 7591, 
  "管理人": 7592, 
  "偏离": 7593, 
  "相继": 7594, 
  "30万": 7595, 
  "借助": 7596, 
  "监控": 7597, 
  "服从": 7598, 
  "记忆": 7599, 
  "借调": 7600, 
  "10亿": 7601, 
  "全会": 7602, 
  "行走": 7603, 
  "遏止": 7604, 
  "春": 7605, 
  "143": 7606, 
  "俄语": 7607, 
  "硬": 7608, 
  "170": 7609, 
  "基加利": 7610, 
  "输": 7611, 
  "铜锣湾": 7612, 
  "签": 7613, 
  "变更": 7614, 
  "嗯哼": 7615, 
  "153": 7616, 
  "p-2": 7617, 
  "水务署": 7618, 
  "压迫": 7619, 
  "职级": 7620, 
  "况且": 7621, 
  "147": 7622, 
  "申请者": 7623, 
  "过份": 7624, 
  "断定": 7625, 
  "接替": 7626, 
  "冈比亚": 7627, 
  "制服": 7628, 
  "载述": 7629, 
  "船@@": 7630, 
  "丽@@": 7631, 
  "微": 7632, 
  "引擎": 7633, 
  "紧": 7634, 
  "盖@@": 7635, 
  "da": 7636, 
  "九十年代": 7637, 
  "man@@": 7638, 
  "科长": 7639, 
  "福建": 7640, 
  "老化": 7641, 
  "凡是": 7642, 
  "参拜": 7643, 
  "风格": 7644, 
  "追查": 7645, 
  "高雄": 7646, 
  "弱势": 7647, 
  "莱索托": 7648, 
  "冒": 7649, 
  "强硬": 7650, 
  "何处": 7651, 
  "76@@": 7652, 
  "吉": 7653, 
  "病床": 7654, 
  "望": 7655, 
  "太阳能": 7656, 
  "166": 7657, 
  "台北市": 7658, 
  "经济区": 7659, 
  "工作日": 7660, 
  "资料库": 7661, 
  "多元": 7662, 
  "贸易点": 7663, 
  "善@@": 7664, 
  "原文": 7665, 
  "记载": 7666, 
  "名誉": 7667, 
  "总区": 7668, 
  "惯常": 7669, 
  "揭露": 7670, 
  "大陆架": 7671, 
  "148": 7672, 
  "慰问": 7673, 
  "攸关": 7674, 
  "亲@@": 7675, 
  "终": 7676, 
  "家族": 7677, 
  "扭曲": 7678, 
  "雅加达": 7679, 
  "充份": 7680, 
  "神舟": 7681, 
  "容": 7682, 
  "运费": 7683, 
  "灌溉": 7684, 
  "书@@": 7685, 
  "妥当": 7686, 
  "过@@": 7687, 
  "培训局": 7688, 
  "国土": 7689, 
  "电文": 7690, 
  "规律": 7691, 
  "内向": 7692, 
  "火器": 7693, 
  "天桥": 7694, 
  "压": 7695, 
  "各位": 7696, 
  "妥": 7697, 
  "复制": 7698, 
  "宁": 7699, 
  "对立": 7700, 
  "不止": 7701, 
  "稳定性": 7702, 
  "势": 7703, 
  "始": 7704, 
  "远程": 7705, 
  "压@@": 7706, 
  "14.@@": 7707, 
  "趋": 7708, 
  "受助人": 7709, 
  "夏季": 7710, 
  "60@@": 7711, 
  "平均数": 7712, 
  "房屋局": 7713, 
  "柏林": 7714, 
  "扩张": 7715, 
  "准军事": 7716, 
  "绿化": 7717, 
  "139": 7718, 
  "蓝图": 7719, 
  "调查团": 7720, 
  "鸟": 7721, 
  "推展": 7722, 
  "钢铁": 7723, 
  "扩阔": 7724, 
  "何敏嘉": 7725, 
  "多哈": 7726, 
  "什麽": 7727, 
  "坚定不移": 7728, 
  "失误": 7729, 
  "随後": 7730, 
  "升值": 7731, 
  "八十年代": 7732, 
  "154": 7733, 
  "bi@@": 7734, 
  "表@@": 7735, 
  "户口": 7736, 
  "录音": 7737, 
  "963": 7738, 
  "零部件": 7739, 
  "毛里塔尼亚": 7740, 
  "销售处": 7741, 
  "力图": 7742, 
  "毁": 7743, 
  "结": 7744, 
  "症": 7745, 
  "营@@": 7746, 
  ">": 7747, 
  "批发": 7748, 
  "商船": 7749, 
  "方括号": 7750, 
  "开庭": 7751, 
  "恶性": 7752, 
  "道歉": 7753, 
  "停车": 7754, 
  "第60": 7755, 
  "私营化": 7756, 
  "条约法": 7757, 
  "24.@@": 7758, 
  "周转": 7759, 
  "完工": 7760, 
  "ni@@": 7761, 
  "政策局": 7762, 
  "附加费": 7763, 
  "结@@": 7764, 
  "涉案": 7765, 
  "护@@": 7766, 
  "曼": 7767, 
  "餐厅": 7768, 
  "千万": 7769, 
  "目录": 7770, 
  "156": 7771, 
  "国旗": 7772, 
  "温和": 7773, 
  "ic@@": 7774, 
  "李敖": 7775, 
  "神社": 7776, 
  "印花税": 7777, 
  "监察员": 7778, 
  "pe@@": 7779, 
  "孤儿": 7780, 
  "赛事": 7781, 
  "平行": 7782, 
  "路@@": 7783, 
  "院舍": 7784, 
  "流域": 7785, 
  "暴雨": 7786, 
  "动摇": 7787, 
  "唉": 7788, 
  "市值": 7789, 
  "00@@": 7790, 
  "亚非": 7791, 
  "出国": 7792, 
  "让步": 7793, 
  "亲": 7794, 
  "战术": 7795, 
  "教廷": 7796, 
  "耐心": 7797, 
  "反对党": 7798, 
  "距": 7799, 
  "1961年": 7800, 
  "鼓吹": 7801, 
  "其间": 7802, 
  "赛@@": 7803, 
  "装有": 7804, 
  "管辖区": 7805, 
  "天文台": 7806, 
  "罪恶": 7807, 
  "兹@@": 7808, 
  "何承天": 7809, 
  "裁员": 7810, 
  "派系": 7811, 
  "ali": 7812, 
  "牛@@": 7813, 
  "上课": 7814, 
  "无理": 7815, 
  "班吉": 7816, 
  "6亿": 7817, 
  "公诉": 7818, 
  "遍": 7819, 
  "燃烧": 7820, 
  "史@@": 7821, 
  "马克思主义": 7822, 
  "招牌": 7823, 
  "官僚": 7824, 
  "得悉": 7825, 
  "总经理": 7826, 
  "巨额": 7827, 
  "连线": 7828, 
  "危急": 7829, 
  "字样": 7830, 
  "25.@@": 7831, 
  "下调": 7832, 
  "通则": 7833, 
  "44@@": 7834, 
  "报刊": 7835, 
  "2万": 7836, 
  "耶@@": 7837, 
  "二零零四年": 7838, 
  "当事方": 7839, 
  "1973": 7840, 
  "放心": 7841, 
  "种子": 7842, 
  "旅行社": 7843, 
  "木": 7844, 
  "升降机": 7845, 
  "开来": 7846, 
  "罚则": 7847, 
  "理据": 7848, 
  "低@@": 7849, 
  "hu@@": 7850, 
  "运转": 7851, 
  "店铺": 7852, 
  "颠覆": 7853, 
  "置": 7854, 
  "十二时": 7855, 
  "1948年": 7856, 
  "廉价": 7857, 
  "不遗余力": 7858, 
  "死@@": 7859, 
  "侧": 7860, 
  "烟花": 7861, 
  "1500": 7862, 
  "北大西洋": 7863, 
  "第76": 7864, 
  "杀死": 7865, 
  "骄傲": 7866, 
  "伦理": 7867, 
  "勇敢": 7868, 
  "身分证": 7869, 
  "不动产": 7870, 
  "重债": 7871, 
  "低估": 7872, 
  "围": 7873, 
  "连续性": 7874, 
  "绝不": 7875, 
  "500万": 7876, 
  "驻华": 7877, 
  "公": 7878, 
  "五十万": 7879, 
  "pv.@@": 7880, 
  "严密": 7881, 
  "第1244": 7882, 
  "唐@@": 7883, 
  "精@@": 7884, 
  "环境署": 7885, 
  "享用": 7886, 
  "斯威士兰": 7887, 
  "科摩罗": 7888, 
  "早先": 7889, 
  "遗嘱": 7890, 
  "信用卡": 7891, 
  "巴勒斯坦人": 7892, 
  "调查队": 7893, 
  "西区": 7894, 
  "身@@": 7895, 
  "启@@": 7896, 
  "业权": 7897, 
  "300万": 7898, 
  "第二十一": 7899, 
  "军事区": 7900, 
  "车位": 7901, 
  "职系": 7902, 
  "得@@": 7903, 
  "难免": 7904, 
  "初@@": 7905, 
  "承办商": 7906, 
  "文化署": 7907, 
  "1万": 7908, 
  "大都": 7909, 
  "公海": 7910, 
  "绩效": 7911, 
  "劳力": 7912, 
  "不负责任": 7913, 
  "据以": 7914, 
  "海事处": 7915, 
  "指望": 7916, 
  "诉求": 7917, 
  "继承国": 7918, 
  "密@@": 7919, 
  "3a": 7920, 
  "祖@@": 7921, 
  "149": 7922, 
  "为首": 7923, 
  "班@@": 7924, 
  "视听": 7925, 
  "忠实": 7926, 
  "s-@@": 7927, 
  "通盘": 7928, 
  "诞生": 7929, 
  "麦理": 7930, 
  "专才": 7931, 
  "客运": 7932, 
  "赚钱": 7933, 
  "海报": 7934, 
  "通货膨胀率": 7935, 
  "蔬菜": 7936, 
  "检察长": 7937, 
  "原讼": 7938, 
  "单据": 7939, 
  "程": 7940, 
  "走@@": 7941, 
  "东主": 7942, 
  "重型": 7943, 
  "巡回": 7944, 
  "反对票": 7945, 
  "mon@@": 7946, 
  "发病率": 7947, 
  "自然人": 7948, 
  "饭": 7949, 
  "工艺": 7950, 
  "从此": 7951, 
  "唐英年": 7952, 
  "羁押": 7953, 
  "以内": 7954, 
  "bar@@": 7955, 
  "恰恰": 7956, 
  "月份": 7957, 
  "软": 7958, 
  "毗邻": 7959, 
  "列支": 7960, 
  "il@@": 7961, 
  "颜色": 7962, 
  "保护主义": 7963, 
  "贬值": 7964, 
  "风气": 7965, 
  "保险费": 7966, 
  "深水": 7967, 
  "眼光": 7968, 
  "改道": 7969, 
  "迁往": 7970, 
  "第242": 7971, 
  "亟需": 7972, 
  "商店": 7973, 
  "办公厅": 7974, 
  "请愿": 7975, 
  "诚实": 7976, 
  "威@@": 7977, 
  "产假": 7978, 
  "紧缩": 7979, 
  "破@@": 7980, 
  "add.3": 7981, 
  "重庆": 7982, 
  "港汇": 7983, 
  "第62": 7984, 
  "尤@@": 7985, 
  "二氧化碳": 7986, 
  "对比": 7987, 
  "忘": 7988, 
  "75%": 7989, 
  "罚": 7990, 
  "钰成": 7991, 
  "雄": 7992, 
  "氏": 7993, 
  "卖@@": 7994, 
  "饭店": 7995, 
  "深度": 7996, 
  "光盘": 7997, 
  "兑现": 7998, 
  "病@@": 7999, 
  "松@@": 8000, 
  "军区": 8001, 
  "星@@": 8002, 
  "分散会": 8003, 
  "210": 8004, 
  "最早": 8005, 
  "相连": 8006, 
  "规程": 8007, 
  "剧": 8008, 
  "by": 8009, 
  "租住": 8010, 
  "扩建": 8011, 
  "合共": 8012, 
  "谋": 8013, 
  "事@@": 8014, 
  "展览会": 8015, 
  "ac.109": 8016, 
  "印@@": 8017, 
  "赫": 8018, 
  "20000": 8019, 
  "降": 8020, 
  "稳健": 8021, 
  "三十@@": 8022, 
  "02": 8023, 
  "刑期": 8024, 
  "订购": 8025, 
  "伊斯兰教": 8026, 
  "相若": 8027, 
  "预@@": 8028, 
  "城乡": 8029, 
  "无需": 8030, 
  "伊科": 8031, 
  "中将": 8032, 
  "福利局": 8033, 
  "盗窃": 8034, 
  "最惠国": 8035, 
  "纺织": 8036, 
  "背後": 8037, 
  "精神病": 8038, 
  "驻留": 8039, 
  "山东": 8040, 
  "接驳": 8041, 
  "拖": 8042, 
  "母": 8043, 
  "四时": 8044, 
  "标明": 8045, 
  "地步": 8046, 
  "明知": 8047, 
  "镜头": 8048, 
  "萨摩亚": 8049, 
  "路政署": 8050, 
  "管理厅": 8051, 
  "ru@@": 8052, 
  "起@@": 8053, 
  "159": 8054, 
  "佩@@": 8055, 
  "艺术家": 8056, 
  "草@@": 8057, 
  "第13@@": 8058, 
  "环发": 8059, 
  "移居": 8060, 
  "前瞻性": 8061, 
  "随著": 8062, 
  "sch@@": 8063, 
  "man": 8064, 
  "真@@": 8065, 
  "保释": 8066, 
  "出差": 8067, 
  "雨": 8068, 
  "第61": 8069, 
  "再见": 8070, 
  "一九八五年": 8071, 
  "教派": 8072, 
  "这儿": 8073, 
  "阵": 8074, 
  "7亿": 8075, 
  "ta": 8076, 
  "瑞@@": 8077, 
  "第四十七": 8078, 
  "扑灭": 8079, 
  "历年": 8080, 
  "2015年": 8081, 
  "这样子": 8082, 
  "那儿": 8083, 
  "第75": 8084, 
  "先行": 8085, 
  "求@@": 8086, 
  "专营权": 8087, 
  "索赔额": 8088, 
  "如期": 8089, 
  "中小学": 8090, 
  "d-1": 8091, 
  "为由": 8092, 
  "丝毫": 8093, 
  "受灾": 8094, 
  "接种": 8095, 
  "玩具": 8096, 
  "急性": 8097, 
  "义@@": 8098, 
  "将要": 8099, 
  "活@@": 8100, 
  "掠夺": 8101, 
  "责任感": 8102, 
  "全@@": 8103, 
  "死因": 8104, 
  "陪审团": 8105, 
  "战@@": 8106, 
  "厦门": 8107, 
  "政": 8108, 
  "孔@@": 8109, 
  "血": 8110, 
  "断": 8111, 
  "小说": 8112, 
  "维": 8113, 
  "起诉书": 8114, 
  "ia": 8115, 
  "旧@@": 8116, 
  "筹划": 8117, 
  "样子": 8118, 
  "新鲜": 8119, 
  "李国宝": 8120, 
  "牲畜": 8121, 
  "民盟": 8122, 
  "合法化": 8123, 
  "强度": 8124, 
  "政@@": 8125, 
  "特有": 8126, 
  "中介": 8127, 
  "执政党": 8128, 
  "遥远": 8129, 
  "体验": 8130, 
  "过境国": 8131, 
  "碰到": 8132, 
  "商机": 8133, 
  "汇": 8134, 
  "端": 8135, 
  "互信": 8136, 
  "tu@@": 8137, 
  "无助": 8138, 
  "专属": 8139, 
  "惩教署": 8140, 
  "无罪": 8141, 
  "行李": 8142, 
  "践踏": 8143, 
  "59@@": 8144, 
  "平方公里": 8145, 
  "听众": 8146, 
  "na@@": 8147, 
  "原籍国": 8148, 
  "165": 8149, 
  "完结": 8150, 
  "政治家": 8151, 
  "新订": 8152, 
  "外交官": 8153, 
  "代顿": 8154, 
  "以色列人": 8155, 
  "采@@": 8156, 
  "阻吓": 8157, 
  "负债表": 8158, 
  "互惠": 8159, 
  "伦": 8160, 
  "数学": 8161, 
  "时常": 8162, 
  "一百万": 8163, 
  "wto": 8164, 
  "任择": 8165, 
  "年@@": 8166, 
  "舞弊": 8167, 
  "著@@": 8168, 
  "讲到": 8169, 
  "停@@": 8170, 
  "不易": 8171, 
  "gi@@": 8172, 
  "小姐": 8173, 
  "宣扬": 8174, 
  "菲@@": 8175, 
  "供电": 8176, 
  "太太": 8177, 
  "移送": 8178, 
  "丙": 8179, 
  "稳": 8180, 
  "商户": 8181, 
  "商@@": 8182, 
  "无限": 8183, 
  "细菌": 8184, 
  "致谢": 8185, 
  "研究生": 8186, 
  "参与性": 8187, 
  "杨耀忠": 8188, 
  "ak@@": 8189, 
  "明朗": 8190, 
  "待命": 8191, 
  "保险人": 8192, 
  "car@@": 8193, 
  "直至": 8194, 
  "定价": 8195, 
  "国人": 8196, 
  "幸运": 8197, 
  "分行": 8198, 
  "市政府": 8199, 
  "插入": 8200, 
  "高官": 8201, 
  "想像": 8202, 
  "冷@@": 8203, 
  "景@@": 8204, 
  "吊销": 8205, 
  "欧空局": 8206, 
  "环球": 8207, 
  "约@@": 8208, 
  "第三十九": 8209, 
  "c.4": 8210, 
  "当务之急": 8211, 
  "光明": 8212, 
  "泰": 8213, 
  "回忆": 8214, 
  "pro@@": 8215, 
  "庭": 8216, 
  "评核": 8217, 
  "二百": 8218, 
  "输送": 8219, 
  "转用": 8220, 
  "教导": 8221, 
  "清真寺": 8222, 
  "破产法": 8223, 
  "185": 8224, 
  "23.@@": 8225, 
  "轻松": 8226, 
  "亲身": 8227, 
  "逆转": 8228, 
  "全新": 8229, 
  "尔.@@": 8230, 
  "加幅": 8231, 
  "上网": 8232, 
  "心里": 8233, 
  "qu@@": 8234, 
  "d.@@": 8235, 
  "20多": 8236, 
  "跳": 8237, 
  "精英": 8238, 
  "互补": 8239, 
  "大桥": 8240, 
  "外出": 8241, 
  "积金局": 8242, 
  "夜间": 8243, 
  "营造": 8244, 
  "阴谋": 8245, 
  "投机": 8246, 
  "轻@@": 8247, 
  "cp": 8248, 
  "字句": 8249, 
  "观光": 8250, 
  "九五": 8251, 
  "危险品": 8252, 
  "三时": 8253, 
  "远离": 8254, 
  "旁边": 8255, 
  "厕所": 8256, 
  "洛美": 8257, 
  "录像": 8258, 
  "检": 8259, 
  "靠近": 8260, 
  "仁": 8261, 
  "亚太区": 8262, 
  "诸": 8263, 
  "雪@@": 8264, 
  "联发援": 8265, 
  "浮@@": 8266, 
  "2010年": 8267, 
  "惊讶": 8268, 
  "载@@": 8269, 
  "调高": 8270, 
  "购物": 8271, 
  "登记处": 8272, 
  "当@@": 8273, 
  "受训": 8274, 
  "五十@@": 8275, 
  "短短": 8276, 
  "远@@": 8277, 
  "单张": 8278, 
  "通风": 8279, 
  "多媒体": 8280, 
  "57@@": 8281, 
  "癌症": 8282, 
  "试@@": 8283, 
  "诸多": 8284, 
  "文凭": 8285, 
  "家里": 8286, 
  "派往": 8287, 
  "极大": 8288, 
  "营办商": 8289, 
  "进驻": 8290, 
  "企业界": 8291, 
  "同步": 8292, 
  "漂亮": 8293, 
  "唐家璇": 8294, 
  "f-15": 8295, 
  "候补": 8296, 
  "hi@@": 8297, 
  "竹@@": 8298, 
  "洪@@": 8299, 
  "吸纳": 8300, 
  "情@@": 8301, 
  "扼要": 8302, 
  "灾难性": 8303, 
  "思": 8304, 
  "下台": 8305, 
  "回升": 8306, 
  "ver@@": 8307, 
  "落@@": 8308, 
  "茶": 8309, 
  "历": 8310, 
  "五千": 8311, 
  "志": 8312, 
  "联络处": 8313, 
  "工务": 8314, 
  "54@@": 8315, 
  "清算": 8316, 
  "蔡@@": 8317, 
  "文莱": 8318, 
  "银@@": 8319, 
  "看@@": 8320, 
  "ge@@": 8321, 
  "机票": 8322, 
  "刘汉铨": 8323, 
  "标": 8324, 
  "坦克": 8325, 
  "集装箱": 8326, 
  "163": 8327, 
  "调控": 8328, 
  "张贴": 8329, 
  "赖@@": 8330, 
  "失效": 8331, 
  "里头": 8332, 
  "替换": 8333, 
  "跨@@": 8334, 
  "退@@": 8335, 
  "已婚": 8336, 
  "今後": 8337, 
  "嫌疑人": 8338, 
  "散布": 8339, 
  "减@@": 8340, 
  "文康": 8341, 
  "实事求是": 8342, 
  "参赛": 8343, 
  "供@@": 8344, 
  "年报": 8345, 
  "检察院": 8346, 
  "电缆": 8347, 
  "波罗的海": 8348, 
  "造@@": 8349, 
  "水源": 8350, 
  "侵略者": 8351, 
  "导言": 8352, 
  "二零零五年": 8353, 
  "精心": 8354, 
  "农历": 8355, 
  "生福利局": 8356, 
  "制衡": 8357, 
  "政治化": 8358, 
  "客机": 8359, 
  "暗杀": 8360, 
  "无形": 8361, 
  "女@@": 8362, 
  "直播": 8363, 
  "出路": 8364, 
  "九五年": 8365, 
  "呈报": 8366, 
  "余@@": 8367, 
  "信服": 8368, 
  "命": 8369, 
  "司令部": 8370, 
  "霍乱": 8371, 
  "农": 8372, 
  "日后": 8373, 
  "仍旧": 8374, 
  "陛下": 8375, 
  "退": 8376, 
  "现今": 8377, 
  "res": 8378, 
  "愤怒": 8379, 
  "累计": 8380, 
  "监护人": 8381, 
  "禁": 8382, 
  "地价": 8383, 
  "los": 8384, 
  "范@@": 8385, 
  "零下": 8386, 
  "输往": 8387, 
  "鸦片": 8388, 
  "售": 8389, 
  "刑法典": 8390, 
  "赛马会": 8391, 
  "少量": 8392, 
  "监护": 8393, 
  "随意": 8394, 
  "管理员": 8395, 
  "洪水": 8396, 
  "湖南": 8397, 
  "詹培忠": 8398, 
  "会@@": 8399, 
  "奉献": 8400, 
  "车臣": 8401, 
  "单纯": 8402, 
  "用意": 8403, 
  "到访": 8404, 
  "创收": 8405, 
  "趋向": 8406, 
  "侦察机": 8407, 
  "大道": 8408, 
  "ba": 8409, 
  "航": 8410, 
  "第986": 8411, 
  "分支": 8412, 
  "【": 8413, 
  "刑警": 8414, 
  "探员": 8415, 
  "评级": 8416, 
  "票数": 8417, 
  "吴亮星": 8418, 
  "滋扰": 8419, 
  "联塔": 8420, 
  "体@@": 8421, 
  "出访": 8422, 
  "维尔京群岛": 8423, 
  "167": 8424, 
  "偶然": 8425, 
  "譬如": 8426, 
  "讯问": 8427, 
  "互补性": 8428, 
  "司@@": 8429, 
  "】": 8430, 
  "开端": 8431, 
  "随之": 8432, 
  "局限于": 8433, 
  "12%": 8434, 
  "逐字": 8435, 
  "悬殊": 8436, 
  "168": 8437, 
  "_": 8438, 
  "图像": 8439, 
  "横@@": 8440, 
  "66@@": 8441, 
  "数百万": 8442, 
  "工伤": 8443, 
  "猪": 8444, 
  "陆路": 8445, 
  "操守": 8446, 
  "杜叶锡恩": 8447, 
  "世界性": 8448, 
  "音": 8449, 
  "几百": 8450, 
  "no.@@": 8451, 
  "修读": 8452, 
  "1988": 8453, 
  "捕捞": 8454, 
  "55@@": 8455, 
  "陷于": 8456, 
  "羁留": 8457, 
  "商用": 8458, 
  "夫妻": 8459, 
  "沙": 8460, 
  "期满": 8461, 
  "新建": 8462, 
  "税务局": 8463, 
  "足额": 8464, 
  "床位": 8465, 
  "靖国": 8466, 
  "交回": 8467, 
  "难@@": 8468, 
  "杰": 8469, 
  "铺平": 8470, 
  "安全网": 8471, 
  "隐瞒": 8472, 
  "乡镇": 8473, 
  "演练": 8474, 
  "翌日": 8475, 
  "场址": 8476, 
  "冰@@": 8477, 
  "城@@": 8478, 
  "嫌疑犯": 8479, 
  "压制": 8480, 
  "负责者": 8481, 
  "平时": 8482, 
  "测验": 8483, 
  "下属": 8484, 
  "言@@": 8485, 
  "尾": 8486, 
  "g.b.s.": 8487, 
  "郊区": 8488, 
  "内陆国": 8489, 
  "总计": 8490, 
  "外判": 8491, 
  "三千": 8492, 
  "忠诚": 8493, 
  "沉默": 8494, 
  "翼": 8495, 
  "微妙": 8496, 
  "潘@@": 8497, 
  "1955年": 8498, 
  "伯利兹": 8499, 
  "蒂": 8500, 
  "登上": 8501, 
  "访问团": 8502, 
  "理财": 8503, 
  "省长": 8504, 
  "改建": 8505, 
  "六十六": 8506, 
  "观": 8507, 
  "熊猫": 8508, 
  "第ii部": 8509, 
  "add.@@": 8510, 
  "观察组": 8511, 
  "拦截": 8512, 
  "流亡": 8513, 
  "追@@": 8514, 
  "分娩": 8515, 
  "放松": 8516, 
  "面@@": 8517, 
  "破": 8518, 
  "校园": 8519, 
  "经济学家": 8520, 
  "朝向": 8521, 
  "164": 8522, 
  "藏有": 8523, 
  "河@@": 8524, 
  "丰@@": 8525, 
  "出缺率": 8526, 
  "宫": 8527, 
  "划拨": 8528, 
  "遗传": 8529, 
  "水果": 8530, 
  "法律界": 8531, 
  "载明": 8532, 
  "驻扎": 8533, 
  "申领": 8534, 
  "犹太": 8535, 
  "ka": 8536, 
  "日增": 8537, 
  "好多": 8538, 
  "客气话": 8539, 
  "弃置": 8540, 
  "赔偿额": 8541, 
  "联预": 8542, 
  "私隐": 8543, 
  "取@@": 8544, 
  "兴@@": 8545, 
  "彭定康": 8546, 
  "损毁": 8547, 
  "b.@@": 8548, 
  "沮丧": 8549, 
  "192": 8550, 
  "par@@": 8551, 
  "後者": 8552, 
  "治罪": 8553, 
  "icef": 8554, 
  "瘫痪": 8555, 
  "源自": 8556, 
  "模糊": 8557, 
  "第67": 8558, 
  "外劳": 8559, 
  "其@@": 8560, 
  "直@@": 8561, 
  "表扬": 8562, 
  "乔@@": 8563, 
  "烧@@": 8564, 
  "承包": 8565, 
  "第四十": 8566, 
  "em@@": 8567, 
  "参见": 8568, 
  "大气层": 8569, 
  "巡视": 8570, 
  "广西": 8571, 
  "飞行员": 8572, 
  "自称": 8573, 
  "集结": 8574, 
  "9000": 8575, 
  "编@@": 8576, 
  "刘皇发": 8577, 
  "特委会": 8578, 
  "系数": 8579, 
  "洁净": 8580, 
  "车费": 8581, 
  "be": 8582, 
  "渐": 8583, 
  "安非": 8584, 
  "流向": 8585, 
  "立法院": 8586, 
  "武": 8587, 
  "政治性": 8588, 
  "涨": 8589, 
  "兴奋": 8590, 
  "排名": 8591, 
  "烟": 8592, 
  "年青": 8593, 
  "公式": 8594, 
  "发电机": 8595, 
  "师资": 8596, 
  "联危": 8597, 
  "理所当然": 8598, 
  "代表权": 8599, 
  "立委": 8600, 
  "星期天": 8601, 
  "哀悼": 8602, 
  "季节": 8603, 
  "支助团": 8604, 
  "181": 8605, 
  "招@@": 8606, 
  "兴奋剂": 8607, 
  "西班牙文": 8608, 
  "f-16": 8609, 
  "价钱": 8610, 
  "进来": 8611, 
  "袋": 8612, 
  "造": 8613, 
  "修@@": 8614, 
  "坚强": 8615, 
  "佛教": 8616, 
  "胡": 8617, 
  "塔吉克": 8618, 
  "苦@@": 8619, 
  "哈尔滨": 8620, 
  "峰": 8621, 
  "wp.@@": 8622, 
  "原意": 8623, 
  "ju@@": 8624, 
  "移植": 8625, 
  "团队": 8626, 
  "轮流": 8627, 
  "169": 8628, 
  "80@@": 8629, 
  "对照": 8630, 
  "大体上": 8631, 
  "布宜诺斯艾利斯": 8632, 
  "抱怨": 8633, 
  "子弹": 8634, 
  "退还": 8635, 
  "收获": 8636, 
  "考@@": 8637, 
  "守": 8638, 
  "根本性": 8639, 
  "贸易区": 8640, 
  "新生": 8641, 
  "100%": 8642, 
  "顾": 8643, 
  "黄震遐": 8644, 
  "乐园": 8645, 
  "前体": 8646, 
  "240": 8647, 
  "旱灾": 8648, 
  "越境": 8649, 
  "直通车": 8650, 
  "毒": 8651, 
  "宝": 8652, 
  "减弱": 8653, 
  "核电厂": 8654, 
  "金沙萨": 8655, 
  "思路": 8656, 
  "诺贝尔": 8657, 
  "养恤金": 8658, 
  "切勿": 8659, 
  "过多": 8660, 
  "拥挤": 8661, 
  "商务部": 8662, 
  "春@@": 8663, 
  "迟浩田": 8664, 
  "ar": 8665, 
  "油麻地": 8666, 
  "243": 8667, 
  "移徙者": 8668, 
  "德班": 8669, 
  "纪元": 8670, 
  "90@@": 8671, 
  "人命": 8672, 
  "175": 8673, 
  "问及": 8674, 
  "国事": 8675, 
  "私@@": 8676, 
  "l.2": 8677, 
  "合夥": 8678, 
  "3万": 8679, 
  "积极性": 8680, 
  "摩@@": 8681, 
  "门票": 8682, 
  "反馈": 8683, 
  "ya": 8684, 
  "摊位": 8685, 
  "碰撞": 8686, 
  "资本主义": 8687, 
  "名下": 8688, 
  "李岚清": 8689, 
  "斯特@@": 8690, 
  "朱幼麟": 8691, 
  "ou@@": 8692, 
  "考绩": 8693, 
  "打电话": 8694, 
  "途中": 8695, 
  "颁奖": 8696, 
  "认": 8697, 
  "100000": 8698, 
  "电器": 8699, 
  "央行": 8700, 
  "倾倒": 8701, 
  "利得税": 8702, 
  "抗@@": 8703, 
  "月@@": 8704, 
  "改叙": 8705, 
  "辛苦": 8706, 
  "急@@": 8707, 
  "交叉": 8708, 
  "乌": 8709, 
  "弹": 8710, 
  "汉": 8711, 
  "暨": 8712, 
  "玛@@": 8713, 
  "收藏": 8714, 
  "厘": 8715, 
  "欠佳": 8716, 
  "1966年": 8717, 
  "液体": 8718, 
  "233": 8719, 
  "渗透": 8720, 
  "回报率": 8721, 
  "摩纳哥": 8722, 
  "第425": 8723, 
  "中药": 8724, 
  "200@@": 8725, 
  "涌入": 8726, 
  "重开": 8727, 
  "文意": 8728, 
  "计@@": 8729, 
  "马场": 8730, 
  "睡": 8731, 
  "ed@@": 8732, 
  "细目": 8733, 
  "177": 8734, 
  "一百多": 8735, 
  "四十五": 8736, 
  "海水": 8737, 
  "急症室": 8738, 
  "住客": 8739, 
  "诉讼法": 8740, 
  "鲜明": 8741, 
  "ce@@": 8742, 
  "191": 8743, 
  "案子": 8744, 
  "疑犯": 8745, 
  "情节": 8746, 
  "对@@": 8747, 
  "阿布贾": 8748, 
  "高地": 8749, 
  "韩@@": 8750, 
  "负荷": 8751, 
  "手头": 8752, 
  "致敬": 8753, 
  "西南": 8754, 
  "奴隶": 8755, 
  "烟@@": 8756, 
  "篇幅": 8757, 
  "孩子们": 8758, 
  "215": 8759, 
  "机管局": 8760, 
  "红磡": 8761, 
  "顽固": 8762, 
  "226": 8763, 
  "古老": 8764, 
  "联萨": 8765, 
  "七十@@": 8766, 
  "函件": 8767, 
  "第2002": 8768, 
  "照明": 8769, 
  "范徐丽泰": 8770, 
  "记住": 8771, 
  "搞好": 8772, 
  "坟场": 8773, 
  "和睦": 8774, 
  "取向": 8775, 
  "借款": 8776, 
  "计量": 8777, 
  "带给": 8778, 
  "行长": 8779, 
  "供养": 8780, 
  "28.@@": 8781, 
  "日本人": 8782, 
  "我军": 8783, 
  "流血": 8784, 
  "三十六": 8785, 
  "程序性": 8786, 
  "欧佩克": 8787, 
  "第77": 8788, 
  "那@@": 8789, 
  "循序渐进": 8790, 
  "棘手": 8791, 
  "上来": 8792, 
  "梅托希亚": 8793, 
  "布林迪西": 8794, 
  "马绍尔群岛": 8795, 
  "㈤": 8796, 
  "路口": 8797, 
  "政界": 8798, 
  "信息网": 8799, 
  "大地": 8800, 
  "出发点": 8801, 
  "分隔": 8802, 
  "日间": 8803, 
  "一览表": 8804, 
  "点名": 8805, 
  "1989": 8806, 
  "new": 8807, 
  "ation": 8808, 
  "杨": 8809, 
  "大于": 8810, 
  "争辩": 8811, 
  "斯德哥尔摩": 8812, 
  "智能": 8813, 
  "食@@": 8814, 
  "剧院": 8815, 
  "不然": 8816, 
  "第二十二": 8817, 
  "讲坛": 8818, 
  "青衣": 8819, 
  "陆@@": 8820, 
  "细@@": 8821, 
  "广铁路": 8822, 
  "天津": 8823, 
  "其时": 8824, 
  "三十八": 8825, 
  "账户": 8826, 
  "详述": 8827, 
  "com@@": 8828, 
  "归属": 8829, 
  "赡养费": 8830, 
  "崛起": 8831, 
  "相关性": 8832, 
  "谨请": 8833, 
  "东南": 8834, 
  "管理层": 8835, 
  "习惯法": 8836, 
  "俄国": 8837, 
  "伊拉克人": 8838, 
  "西北部": 8839, 
  "2a": 8840, 
  "据点": 8841, 
  "宗@@": 8842, 
  "戴": 8843, 
  "熟练": 8844, 
  "族群": 8845, 
  "何秀兰": 8846, 
  "不到": 8847, 
  "民族主义": 8848, 
  "-s": 8849, 
  "学士": 8850, 
  "哨所": 8851, 
  "短片": 8852, 
  "交还": 8853, 
  "多样": 8854, 
  "190": 8855, 
  "211": 8856, 
  "煤矿": 8857, 
  "投标书": 8858, 
  "cn.17": 8859, 
  "des": 8860, 
  "香@@": 8861, 
  "号召": 8862, 
  "泊": 8863, 
  "a/c.1": 8864, 
  "观@@": 8865, 
  "附@@": 8866, 
  "争@@": 8867, 
  "激发": 8868, 
  "领@@": 8869, 
  "私下": 8870, 
  "标@@": 8871, 
  "230": 8872, 
  "良": 8873, 
  "出版社": 8874, 
  "黄伟贤": 8875, 
  "驻军": 8876, 
  "吕@@": 8877, 
  "情报区": 8878, 
  "新德里": 8879, 
  "＊@@": 8880, 
  "高效": 8881, 
  "交界": 8882, 
  "1968年": 8883, 
  "炮击": 8884, 
  "生长": 8885, 
  "简直": 8886, 
  "排污": 8887, 
  "邻居": 8888, 
  "周一": 8889, 
  "天下": 8890, 
  "此前": 8891, 
  "对面": 8892, 
  "直升": 8893, 
  "衔接": 8894, 
  "珠": 8895, 
  "出院": 8896, 
  "解答": 8897, 
  "冲": 8898, 
  "独@@": 8899, 
  "188": 8900, 
  "9亿": 8901, 
  "九十": 8902, 
  "挽救": 8903, 
  "三十五": 8904, 
  "陈荣灿": 8905, 
  "顺@@": 8906, 
  "泽@@": 8907, 
  "g.@@": 8908, 
  "亮": 8909, 
  "支线": 8910, 
  "粮": 8911, 
  "总括": 8912, 
  "圣城": 8913, 
  "九二": 8914, 
  "三十二": 8915, 
  "境": 8916, 
  "反叛": 8917, 
  "专营": 8918, 
  "走到": 8919, 
  "香": 8920, 
  "滞留": 8921, 
  "法则": 8922, 
  "受权": 8923, 
  "au@@": 8924, 
  "入学率": 8925, 
  "思@@": 8926, 
  "商议": 8927, 
  "能量": 8928, 
  "per@@": 8929, 
  "一九九零年": 8930, 
  "低下": 8931, 
  "法医": 8932, 
  "以@@": 8933, 
  "意欲": 8934, 
  "亲人": 8935, 
  "构造": 8936, 
  "邀": 8937, 
  "为@@": 8938, 
  "净@@": 8939, 
  "发扬": 8940, 
  "工联会": 8941, 
  "主人": 8942, 
  "五百@@": 8943, 
  "监测员": 8944, 
  "森@@": 8945, 
  "少于": 8946, 
  "先@@": 8947, 
  "寓所": 8948, 
  "68@@": 8949, 
  "沿线": 8950, 
  "教室": 8951, 
  "位数": 8952, 
  "锅炉": 8953, 
  "路段": 8954, 
  "浓度": 8955, 
  "埃厄": 8956, 
  "商谈": 8957, 
  "严谨": 8958, 
  "察觉": 8959, 
  "成份": 8960, 
  "赶走": 8961, 
  "经受": 8962, 
  "随函": 8963, 
  "石棉": 8964, 
  "拆卸": 8965, 
  "养老金": 8966, 
  "78@@": 8967, 
  "转载": 8968, 
  "第87": 8969, 
  "这边": 8970, 
  "移走": 8971, 
  "百分之十": 8972, 
  "har@@": 8973, 
  "晚间": 8974, 
  "学前": 8975, 
  "珍惜": 8976, 
  "今早": 8977, 
  "夏天": 8978, 
  "逍遥法外": 8979, 
  "ur@@": 8980, 
  "钥匙": 8981, 
  "第四十六": 8982, 
  "抓好": 8983, 
  "劳动者": 8984, 
  "硕士": 8985, 
  "存入": 8986, 
  "撤军": 8987, 
  "敌": 8988, 
  "肤色": 8989, 
  "多半": 8990, 
  "根@@": 8991, 
  "空调": 8992, 
  "物@@": 8993, 
  "井": 8994, 
  "&": 8995, 
  "沿用": 8996, 
  "谋生": 8997, 
  "简@@": 8998, 
  "体面": 8999, 
  "以军": 9000, 
  "警区": 9001, 
  "洛杉矶": 9002, 
  "50000": 9003, 
  "13%": 9004, 
  "竭力": 9005, 
  "画家": 9006, 
  "工务司": 9007, 
  "滩": 9008, 
  "天水围": 9009, 
  "边防": 9010, 
  "潮": 9011, 
  "管理署": 9012, 
  "揭示": 9013, 
  "空置": 9014, 
  "研讨": 9015, 
  "阳": 9016, 
  "建筑师": 9017, 
  "受访者": 9018, 
  "侮辱": 9019, 
  "cd": 9020, 
  "准备金": 9021, 
  "172": 9022, 
  "戒毒": 9023, 
  "等同": 9024, 
  "崭新": 9025, 
  "电子化": 9026, 
  "诚信": 9027, 
  "和@@": 9028, 
  "眼@@": 9029, 
  "曼德拉": 9030, 
  "瓶": 9031, 
  "40万": 9032, 
  "定下": 9033, 
  "来@@": 9034, 
  "国内部": 9035, 
  "读书": 9036, 
  "海洛因": 9037, 
  "交货": 9038, 
  "俩": 9039, 
  "痛": 9040, 
  "阳光": 9041, 
  "176": 9042, 
  "逝世": 9043, 
  "警觉": 9044, 
  "洗@@": 9045, 
  "手提": 9046, 
  "送@@": 9047, 
  "不切实际": 9048, 
  "服役": 9049, 
  "礼@@": 9050, 
  "通胀率": 9051, 
  "降到": 9052, 
  "永": 9053, 
  "ex@@": 9054, 
  "nmd": 9055, 
  "扣": 9056, 
  "出动": 9057, 
  "佐证": 9058, 
  "27.@@": 9059, 
  "献身": 9060, 
  "治@@": 9061, 
  "廉署": 9062, 
  "四十@@": 9063, 
  "讲台": 9064, 
  "水塘": 9065, 
  "球场": 9066, 
  "福克兰": 9067, 
  "同日": 9068, 
  "？@@": 9069, 
  "药@@": 9070, 
  "绿皮书": 9071, 
  "谢意": 9072, 
  "漠视": 9073, 
  "努@@": 9074, 
  "范例": 9075, 
  ":@@": 9076, 
  "新近": 9077, 
  "字母": 9078, 
  "巴哈马": 9079, 
  "主观": 9080, 
  "大麻": 9081, 
  "守@@": 9082, 
  "无论是": 9083, 
  "分销": 9084, 
  "勾结": 9085, 
  "四川": 9086, 
  "奥": 9087, 
  "申办": 9088, 
  "29.@@": 9089, 
  "到位": 9090, 
  "诺基亚": 9091, 
  "阴影": 9092, 
  "减税": 9093, 
  "减损": 9094, 
  "推选": 9095, 
  "衍生": 9096, 
  "配": 9097, 
  "豁免权": 9098, 
  "第80": 9099, 
  "人文": 9100, 
  "制成品": 9101, 
  "载人": 9102, 
  "终结": 9103, 
  "大雨": 9104, 
  "数位": 9105, 
  "207": 9106, 
  "传输": 9107, 
  "基线": 9108, 
  "刻意": 9109, 
  "索引": 9110, 
  "赶": 9111, 
  "加利": 9112, 
  "面貌": 9113, 
  "策略性": 9114, 
  "共存": 9115, 
  "第66": 9116, 
  "专线": 9117, 
  "被动": 9118, 
  "收受": 9119, 
  "野@@": 9120, 
  "想起": 9121, 
  "外流": 9122, 
  "救护车": 9123, 
  "繁重": 9124, 
  "变通": 9125, 
  "工夫": 9126, 
  "东耶路撒冷": 9127, 
  "免税": 9128, 
  "15年": 9129, 
  "呼声": 9130, 
  "异@@": 9131, 
  "喉管": 9132, 
  "五年": 9133, 
  "收据": 9134, 
  "浙江": 9135, 
  "微额": 9136, 
  "2500": 9137, 
  "不要": 9138, 
  "350": 9139, 
  "第65": 9140, 
  "187": 9141, 
  "招": 9142, 
  "公元": 9143, 
  "陈方": 9144, 
  "电池": 9145, 
  "背道而驰": 9146, 
  "安生": 9147, 
  "难得": 9148, 
  "练": 9149, 
  "地位司": 9150, 
  "往年": 9151, 
  "隐藏": 9152, 
  "战线": 9153, 
  "201": 9154, 
  "视野": 9155, 
  "公尺": 9156, 
  "伤者": 9157, 
  "波利萨里奥": 9158, 
  "crc/c": 9159, 
  "f-14": 9160, 
  "河南": 9161, 
  "钢": 9162, 
  "夺取": 9163, 
  "翻@@": 9164, 
  "am": 9165, 
  "184": 9166, 
  "邮购": 9167, 
  "上下": 9168, 
  "尽@@": 9169, 
  "心目": 9170, 
  "送回": 9171, 
  "激动": 9172, 
  "1965年": 9173, 
  "扬@@": 9174, 
  "调派": 9175, 
  "洋@@": 9176, 
  "多余": 9177, 
  "空白": 9178, 
  "互@@": 9179, 
  "议": 9180, 
  "ah": 9181, 
  "诗": 9182, 
  "3g": 9183, 
  "启德": 9184, 
  "集@@": 9185, 
  "一面": 9186, 
  "随便": 9187, 
  "明星": 9188, 
  "农发": 9189, 
  "屋宇": 9190, 
  "誓章": 9191, 
  "共和党": 9192, 
  "勃勃": 9193, 
  "事后": 9194, 
  "225": 9195, 
  "中外": 9196, 
  "大厅": 9197, 
  "单单": 9198, 
  "pi@@": 9199, 
  "递送": 9200, 
  "弗@@": 9201, 
  "礼拜": 9202, 
  "ali@@": 9203, 
  "刊载": 9204, 
  "收盘价": 9205, 
  "牢记": 9206, 
  "迁徙": 9207, 
  "7000": 9208, 
  "存货": 9209, 
  "贸易额": 9210, 
  "后期": 9211, 
  "时数": 9212, 
  "丹@@": 9213, 
  "­": 9214, 
  "原籍": 9215, 
  "沿着": 9216, 
  "另有所": 9217, 
  "舱壁": 9218, 
  "洞": 9219, 
  "遗址": 9220, 
  "上帝": 9221, 
  "ter@@": 9222, 
  "哎呀": 9223, 
  "受审": 9224, 
  "人造": 9225, 
  "高空": 9226, 
  "嫌": 9227, 
  "港湾道": 9228, 
  "事前": 9229, 
  "饱受": 9230, 
  "枪械": 9231, 
  "购": 9232, 
  "检疫": 9233, 
  "尼亚": 9234, 
  "b号": 9235, 
  "充裕": 9236, 
  "公道": 9237, 
  "市中心": 9238, 
  "恶": 9239, 
  "反省": 9240, 
  "交涉": 9241, 
  "无牌": 9242, 
  "生产率": 9243, 
  "感动": 9244, 
  "曲": 9245, 
  "圆@@": 9246, 
  "违约": 9247, 
  "素": 9248, 
  "农业部": 9249, 
  "结成": 9250, 
  "虫": 9251, 
  "散@@": 9252, 
  "舞": 9253, 
  "栋": 9254, 
  "拘押": 9255, 
  "受益于": 9256, 
  "免遭": 9257, 
  "186": 9258, 
  "第三十八": 9259, 
  "调查组": 9260, 
  "88@@": 9261, 
  "逆差": 9262, 
  "重整": 9263, 
  "c节": 9264, 
  "青": 9265, 
  "产物": 9266, 
  "35%": 9267, 
  "第五十九": 9268, 
  "有幸": 9269, 
  "作答": 9270, 
  "代表作": 9271, 
  "扰乱": 9272, 
  "173": 9273, 
  "直径": 9274, 
  "留学生": 9275, 
  "务": 9276, 
  "佛@@": 9277, 
  "珍贵": 9278, 
  "航@@": 9279, 
  "翻": 9280, 
  "阿拉伯文": 9281, 
  "耶": 9282, 
  "234": 9283, 
  "档": 9284, 
  "留@@": 9285, 
  "易于": 9286, 
  "对不起": 9287, 
  "警@@": 9288, 
  "老龄化": 9289, 
  "8000": 9290, 
  "大浪": 9291, 
  "不惜": 9292, 
  "介绍会": 9293, 
  "资历": 9294, 
  "横向": 9295, 
  "显": 9296, 
  "渔农处": 9297, 
  "城市化": 9298, 
  "涉@@": 9299, 
  "营办": 9300, 
  "尼科西亚": 9301, 
  "朱": 9302, 
  "发电厂": 9303, 
  "不丹": 9304, 
  "400万": 9305, 
  "次要": 9306, 
  "图表": 9307, 
  "厘米": 9308, 
  "小朋友": 9309, 
  "李洪志": 9310, 
  "减去": 9311, 
  "事务所": 9312, 
  "使用率": 9313, 
  "屋苑": 9314, 
  "英文本": 9315, 
  "群@@": 9316, 
  "宋@@": 9317, 
  "盼望": 9318, 
  "这时": 9319, 
  "大湖": 9320, 
  "扫盲": 9321, 
  "租值": 9322, 
  "竣工": 9323, 
  "第63": 9324, 
  "初稿": 9325, 
  "船东": 9326, 
  "晚会": 9327, 
  "出租车": 9328, 
  "189": 9329, 
  "折": 9330, 
  "生产国": 9331, 
  "私有": 9332, 
  "典范": 9333, 
  "吴仪": 9334, 
  "1950年": 9335, 
  "黑钱": 9336, 
  "地下水": 9337, 
  "cu@@": 9338, 
  "耗资": 9339, 
  "动工": 9340, 
  "――": 9341, 
  "参议员": 9342, 
  "加费": 9343, 
  "岁月": 9344, 
  "消@@": 9345, 
  "消毒": 9346, 
  "分区域": 9347, 
  "汇@@": 9348, 
  "列席": 9349, 
  "检索": 9350, 
  "用@@": 9351, 
  "母乳": 9352, 
  "狭窄": 9353, 
  "呵": 9354, 
  "保费": 9355, 
  "专项": 9356, 
  "搜寻": 9357, 
  "足@@": 9358, 
  "出资": 9359, 
  "子孙": 9360, 
  "留给": 9361, 
  "整顿": 9362, 
  "领养": 9363, 
  "迟迟": 9364, 
  "共用": 9365, 
  "戏剧": 9366, 
  "见证": 9367, 
  "铀": 9368, 
  "援": 9369, 
  "安宁": 9370, 
  "建屋": 9371, 
  "性格": 9372, 
  "邓@@": 9373, 
  "党@@": 9374, 
  "感冒": 9375, 
  "辛@@": 9376, 
  "红潮": 9377, 
  "全面性": 9378, 
  "延@@": 9379, 
  "王永平": 9380, 
  "合成": 9381, 
  "206": 9382, 
  "2008年": 9383, 
  "图象": 9384, 
  "已故": 9385, 
  "100多": 9386, 
  "易@@": 9387, 
  "he@@": 9388, 
  "源于": 9389, 
  "航天器": 9390, 
  "ber@@": 9391, 
  "路向": 9392, 
  "食物业": 9393, 
  "民营": 9394, 
  "投票权": 9395, 
  "随@@": 9396, 
  "才干": 9397, 
  "废止": 9398, 
  "土木": 9399, 
  "致词": 9400, 
  "酒精": 9401, 
  "人性": 9402, 
  "衣": 9403, 
  "功": 9404, 
  "专注": 9405, 
  "估值": 9406, 
  "斯雷布雷尼察": 9407, 
  "选拔": 9408, 
  "四百": 9409, 
  "柬": 9410, 
  "第68": 9411, 
  "身边": 9412, 
  "os": 9413, 
  "第二十七": 9414, 
  "终端": 9415, 
  "99@@": 9416, 
  "借用": 9417, 
  "项目厅": 9418, 
  "ku@@": 9419, 
  "家居": 9420, 
  "174": 9421, 
  "淘汰": 9422, 
  "准予": 9423, 
  "河流": 9424, 
  "核动力": 9425, 
  "排列": 9426, 
  "清华": 9427, 
  "隆": 9428, 
  "副局长": 9429, 
  "九九年": 9430, 
  "曾@@": 9431, 
  "and@@": 9432, 
  "以北": 9433, 
  "灌输": 9434, 
  "苏里南": 9435, 
  "对等": 9436, 
  "同月": 9437, 
  "劳工法": 9438, 
  "期刊": 9439, 
  "235": 9440, 
  "sha@@": 9441, 
  "自觉": 9442, 
  "劳务": 9443, 
  "电脑化": 9444, 
  "反弹道": 9445, 
  "博览会": 9446, 
  "第四十一": 9447, 
  "国立": 9448, 
  "戴@@": 9449, 
  "wi@@": 9450, 
  "发信": 9451, 
  "举出": 9452, 
  "冷静": 9453, 
  "建国": 9454, 
  "演奏": 9455, 
  "教资": 9456, 
  "从速": 9457, 
  "信用证": 9458, 
  "政体": 9459, 
  "医师": 9460, 
  "进取": 9461, 
  "视察队": 9462, 
  "入场": 9463, 
  "己": 9464, 
  "流动性": 9465, 
  "股权": 9466, 
  "im@@": 9467, 
  "味": 9468, 
  "50年": 9469, 
  "菲": 9470, 
  "单程": 9471, 
  "沈@@": 9472, 
  "华裔": 9473, 
  "优化": 9474, 
  "跟随": 9475, 
  "买@@": 9476, 
  "严": 9477, 
  "216": 9478, 
  "订阅": 9479, 
  "178": 9480, 
  "竞投": 9481, 
  "姓": 9482, 
  "迈@@": 9483, 
  "中区": 9484, 
  "218": 9485, 
  "抗拒": 9486, 
  "安提瓜": 9487, 
  "庇护者": 9488, 
  "et@@": 9489, 
  "咖啡": 9490, 
  "同行": 9491, 
  "台海": 9492, 
  "黑社会": 9493, 
  "越过": 9494, 
  "联交所": 9495, 
  "四十五分": 9496, 
  "波音": 9497, 
  "马尼拉": 9498, 
  "定居者": 9499, 
  "孔": 9500, 
  "大局": 9501, 
  "多亿": 9502, 
  "财赤": 9503, 
  "荣@@": 9504, 
  "蛮": 9505, 
  "考核": 9506, 
  "视觉": 9507, 
  "义工": 9508, 
  "产@@": 9509, 
  "康": 9510, 
  "远东": 9511, 
  "昨晚": 9512, 
  "景点": 9513, 
  "三十多": 9514, 
  "零售商": 9515, 
  "飞往": 9516, 
  "171": 9517, 
  "国界": 9518, 
  "打下": 9519, 
  "佣金": 9520, 
  "撤退": 9521, 
  "导向": 9522, 
  "定型": 9523, 
  "快捷": 9524, 
  "略去": 9525, 
  "忍受": 9526, 
  "逐一": 9527, 
  "合夥人": 9528, 
  "人心": 9529, 
  "203": 9530, 
  "600万": 9531, 
  "露天": 9532, 
  "礼物": 9533, 
  "履约": 9534, 
  "弱智": 9535, 
  "成因": 9536, 
  "互访": 9537, 
  "发动机": 9538, 
  "康体": 9539, 
  "安老": 9540, 
  "钟@@": 9541, 
  "侵蚀": 9542, 
  "骨": 9543, 
  "+": 9544, 
  "匮乏": 9545, 
  "指挥部": 9546, 
  "教育界": 9547, 
  "宁@@": 9548, 
  "扎": 9549, 
  "获知": 9550, 
  "乱@@": 9551, 
  "省级": 9552, 
  "十五分": 9553, 
  "智": 9554, 
  "赶到": 9555, 
  "还有": 9556, 
  "三月份": 9557, 
  "注释": 9558, 
  "生福利司": 9559, 
  "血液": 9560, 
  "锡@@": 9561, 
  "第四十四": 9562, 
  "183": 9563, 
  "势必": 9564, 
  "特许权": 9565, 
  "息": 9566, 
  "景观": 9567, 
  "周三": 9568, 
  "百分之五": 9569, 
  "压缩": 9570, 
  "喜": 9571, 
  "坦诚": 9572, 
  "被迫": 9573, 
  "艇": 9574, 
  "牙医": 9575, 
  "通车": 9576, 
  "多重": 9577, 
  "控股": 9578, 
  "精彩": 9579, 
  "改装": 9580, 
  "关连": 9581, 
  "切": 9582, 
  "外观": 9583, 
  "区@@": 9584, 
  "主角": 9585, 
  "交汇处": 9586, 
  "条次": 9587, 
  "cn.15": 9588, 
  "一如既往": 9589, 
  "用处": 9590, 
  "1200": 9591, 
  "白色": 9592, 
  "经济学": 9593, 
  "公私": 9594, 
  "抽@@": 9595, 
  "接见": 9596, 
  "尘埃": 9597, 
  "数值": 9598, 
  "60万": 9599, 
  "沦为": 9600, 
  "制成": 9601, 
  "股本": 9602, 
  "掌管": 9603, 
  "六百@@": 9604, 
  "入世": 9605, 
  "抓紧": 9606, 
  "ap@@": 9607, 
  "20亿": 9608, 
  "悠久": 9609, 
  "薪资": 9610, 
  "废@@": 9611, 
  "南行": 9612, 
  "希拉克": 9613, 
  "难度": 9614, 
  "夹心": 9615, 
  "佛得角": 9616, 
  "祥": 9617, 
  "纸@@": 9618, 
  "族人": 9619, 
  "179": 9620, 
  "职@@": 9621, 
  "饲养": 9622, 
  "和谈": 9623, 
  "丹": 9624, 
  "知@@": 9625, 
  "奖金": 9626, 
  "物力": 9627, 
  "封@@": 9628, 
  "许贤": 9629, 
  "冰": 9630, 
  "购买力": 9631, 
  "诊疗所": 9632, 
  "纸张": 9633, 
  "拘留所": 9634, 
  "双语": 9635, 
  "固体": 9636, 
  "驻@@": 9637, 
  "抽取": 9638, 
  "廿": 9639, 
  "完美": 9640, 
  "高新": 9641, 
  "订下": 9642, 
  "相差": 9643, 
  "罗门群岛": 9644, 
  "第89": 9645, 
  "莫": 9646, 
  "水灾": 9647, 
  "反驳": 9648, 
  "69@@": 9649, 
  "东非": 9650, 
  "提取": 9651, 
  "轮@@": 9652, 
  "伟": 9653, 
  "想想": 9654, 
  "di": 9655, 
  "给与": 9656, 
  "跑马地": 9657, 
  "联络点": 9658, 
  "六四": 9659, 
  "真理": 9660, 
  "荒谬": 9661, 
  "第三十六": 9662, 
  "叛军": 9663, 
  "苏维埃": 9664, 
  "月球": 9665, 
  "球队": 9666, 
  "照@@": 9667, 
  "kar@@": 9668, 
  "黄宜弘": 9669, 
  "舒适": 9670, 
  "振@@": 9671, 
  "先驱": 9672, 
  "链": 9673, 
  "假若": 9674, 
  "核爆炸": 9675, 
  "右": 9676, 
  "希": 9677, 
  "数以千计": 9678, 
  "云南": 9679, 
  "失业者": 9680, 
  "l.3": 9681, 
  "戈": 9682, 
  "改正": 9683, 
  "生涯": 9684, 
  "刘柔芬": 9685, 
  "体重": 9686, 
  "03": 9687, 
  "枝": 9688, 
  "六十@@": 9689, 
  "43@@": 9690, 
  "松花江": 9691, 
  "基督": 9692, 
  "比方": 9693, 
  "切割": 9694, 
  "民法": 9695, 
  "赤柱": 9696, 
  "厨房": 9697, 
  "间隔": 9698, 
  "厄尔尼诺": 9699, 
  "弹@@": 9700, 
  "100@@": 9701, 
  "上海市": 9702, 
  "第72": 9703, 
  "总统府": 9704, 
  "石澳": 9705, 
  "交通部": 9706, 
  "ay@@": 9707, 
  "场面": 9708, 
  "舞@@": 9709, 
  "221": 9710, 
  "损": 9711, 
  "轮调": 9712, 
  "鸡@@": 9713, 
  "广义": 9714, 
  "坐@@": 9715, 
  "se": 9716, 
  "拜@@": 9717, 
  "第四十五": 9718, 
  "扣减": 9719, 
  "公正性": 9720, 
  "领有": 9721, 
  "胜任": 9722, 
  "过剩": 9723, 
  "信徒": 9724, 
  "马尔代夫": 9725, 
  "赔偿金": 9726, 
  "挂牌": 9727, 
  "国产": 9728, 
  "30.@@": 9729, 
  "加班费": 9730, 
  "生日": 9731, 
  "转送": 9732, 
  "乾": 9733, 
  "说@@": 9734, 
  "特种": 9735, 
  "鬼": 9736, 
  "监测团": 9737, 
  "专委": 9738, 
  "第i": 9739, 
  "阐释": 9740, 
  "海床": 9741, 
  "ge": 9742, 
  "息息相关": 9743, 
  "202": 9744, 
  "出口国": 9745, 
  "里边": 9746, 
  "连队": 9747, 
  "开通": 9748, 
  "宁愿": 9749, 
  "元素": 9750, 
  "回落": 9751, 
  "酒@@": 9752, 
  "热爱": 9753, 
  "困": 9754, 
  "七十年代": 9755, 
  "巴布达": 9756, 
  "市委": 9757, 
  "派@@": 9758, 
  "断@@": 9759, 
  "上级": 9760, 
  "一亿": 9761, 
  "临@@": 9762, 
  "文艺": 9763, 
  "庙": 9764, 
  "二零零七年": 9765, 
  "裔": 9766, 
  "训练班": 9767, 
  "195": 9768, 
  "绿@@": 9769, 
  "什": 9770, 
  "洗": 9771, 
  "193": 9772, 
  "加税": 9773, 
  "洛": 9774, 
  "钱@@": 9775, 
  "称作": 9776, 
  "常@@": 9777, 
  "危险性": 9778, 
  "投注": 9779, 
  "善": 9780, 
  "同业": 9781, 
  "铜": 9782, 
  "sa": 9783, 
  "油类": 9784, 
  "厚": 9785, 
  "验": 9786, 
  "腿": 9787, 
  "光荣": 9788, 
  "241": 9789, 
  "中级": 9790, 
  "糖": 9791, 
  "年满": 9792, 
  "重伤": 9793, 
  "无奈": 9794, 
  "顺应": 9795, 
  "功效": 9796, 
  "反应堆": 9797, 
  "演艺": 9798, 
  "运营商": 9799, 
  "mer@@": 9800, 
  "饮食业": 9801, 
  "自付": 9802, 
  "冯@@": 9803, 
  "少@@": 9804, 
  "tion": 9805, 
  "排定": 9806, 
  "回覆": 9807, 
  "生动": 9808, 
  "追": 9809, 
  "cedaw": 9810, 
  "vol.@@": 9811, 
  "联想": 9812, 
  "试行": 9813, 
  "208": 9814, 
  "浪潮": 9815, 
  "kh@@": 9816, 
  "扫射": 9817, 
  "外聘": 9818, 
  "do": 9819, 
  "三角": 9820, 
  "头部": 9821, 
  "j.@@": 9822, 
  "ana": 9823, 
  "第73": 9824, 
  "弥敦道": 9825, 
  "泡沫": 9826, 
  "兑": 9827, 
  "乃是": 9828, 
  "收款": 9829, 
  "辞": 9830, 
  "推向": 9831, 
  "财@@": 9832, 
  "决赛": 9833, 
  "藉口": 9834, 
  "黄匡源": 9835, 
  "242": 9836, 
  "鸿沟": 9837, 
  "领事馆": 9838, 
  "左@@": 9839, 
  "聚@@": 9840, 
  "服刑": 9841, 
  "马路": 9842, 
  "第69": 9843, 
  "获@@": 9844, 
  "18%": 9845, 
  "归因": 9846, 
  "玉": 9847, 
  "牙科": 9848, 
  "认@@": 9849, 
  "公寓": 9850, 
  "ing@@": 9851, 
  "总站": 9852, 
  "实效": 9853, 
  "贴": 9854, 
  "专业化": 9855, 
  "三十四": 9856, 
  "配@@": 9857, 
  "讽刺": 9858, 
  "学业": 9859, 
  "记@@": 9860, 
  "运到": 9861, 
  "下滑": 9862, 
  "汇票": 9863, 
  "喜@@": 9864, 
  "扣@@": 9865, 
  "怀": 9866, 
  "芳": 9867, 
  "整@@": 9868, 
  "博": 9869, 
  "选用": 9870, 
  "ine": 9871, 
  "热点": 9872, 
  "请电": 9873, 
  "笔译": 9874, 
  "脱@@": 9875, 
  "化为": 9876, 
  "文娱": 9877, 
  "国际化": 9878, 
  "遗弃": 9879, 
  "拖@@": 9880, 
  "一边": 9881, 
  "公益": 9882, 
  "彭@@": 9883, 
  "得来": 9884, 
  "承包者": 9885, 
  "立足": 9886, 
  "春季": 9887, 
  "扬": 9888, 
  "南韩": 9889, 
  "垂直": 9890, 
  "看守": 9891, 
  "黑色": 9892, 
  "海面": 9893, 
  "san@@": 9894, 
  "到场": 9895, 
  "°": 9896, 
  "google": 9897, 
  "national": 9898, 
  "影": 9899, 
  "第二十五": 9900, 
  "浮动": 9901, 
  "钢@@": 9902, 
  "第四十二": 9903, 
  "绝望": 9904, 
  "良@@": 9905, 
  "外科": 9906, 
  "争夺": 9907, 
  "条@@": 9908, 
  "导@@": 9909, 
  "延展": 9910, 
  "选？": 9911, 
  "左": 9912, 
  "少将": 9913, 
  "微软": 9914, 
  "依循": 9915, 
  "谢长廷": 9916, 
  "二千": 9917, 
  "客@@": 9918, 
  "分化": 9919, 
  "课本": 9920, 
  "交予": 9921, 
  "德意志": 9922, 
  "风华园": 9923, 
  "re:": 9924, 
  "球@@": 9925, 
  "父": 9926, 
  "跨国界": 9927, 
  "树@@": 9928, 
  "防务": 9929, 
  "互联": 9930, 
  "冲@@": 9931, 
  "受阻": 9932, 
  "谢": 9933, 
  "盲目": 9934, 
  "团@@": 9935, 
  "藏@@": 9936, 
  "217": 9937, 
  "水库": 9938, 
  "缴费": 9939, 
  "指外": 9940, 
  "液": 9941, 
  "茶@@": 9942, 
  "敦士登": 9943, 
  "不偏不倚": 9944, 
  "谷": 9945, 
  "甘@@": 9946, 
  "私法": 9947, 
  "下旬": 9948, 
  "传出": 9949, 
  "火山": 9950, 
  "报销": 9951, 
  "约翰内斯堡": 9952, 
  "0000": 9953, 
  "早晨": 9954, 
  "迪士尼": 9955, 
  "二千@@": 9956, 
  "工党": 9957, 
  "舍@@": 9958, 
  "抗辩": 9959, 
  "适时": 9960, 
  "容@@": 9961, 
  "廖成利": 9962, 
  "泵": 9963, 
  "创办": 9964, 
  "欣见": 9965, 
  "销": 9966, 
  "id@@": 9967, 
  "奶": 9968, 
  "198": 9969, 
  "罂粟": 9970, 
  "更大": 9971, 
  "下达": 9972, 
  "高企": 9973, 
  "论及": 9974, 
  "内幕": 9975, 
  "残暴": 9976, 
  "宽松": 9977, 
  "一下子": 9978, 
  "控制权": 9979, 
  "恢复性": 9980, 
  "至多": 9981, 
  "硬@@": 9982, 
  "231": 9983, 
  "百分之五十": 9984, 
  "政治犯": 9985, 
  "增大": 9986, 
  "内蒙古": 9987, 
  "无家可归": 9988, 
  "分析性": 9989, 
  "功@@": 9990, 
  "帝汶": 9991, 
  "自信": 9992, 
  "14%": 9993, 
  "救": 9994, 
  "里斯本": 9995, 
  "特惠": 9996, 
  "持续性": 9997, 
  "报案": 9998, 
  "初中": 9999, 
  "部门性": 10000, 
  "197": 10001, 
  "闻": 10002, 
  "资@@": 10003, 
  "流出": 10004, 
  "生活费": 10005, 
  "折@@": 10006, 
  "威": 10007, 
  "细": 10008, 
  "塑造": 10009, 
  "投放": 10010, 
  "占领区": 10011, 
  "拥护": 10012, 
  "受聘": 10013, 
  "一九八四年": 10014, 
  "肉类": 10015, 
  "工作坊": 10016, 
  "趋于": 10017, 
  "管制局": 10018, 
  "锦@@": 10019, 
  "欧共体": 10020, 
  "第四十三": 10021, 
  "吃@@": 10022, 
  "纽约市": 10023, 
  "群组": 10024, 
  "舒@@": 10025, 
  "独裁": 10026, 
  "性骚扰": 10027, 
  "求职": 10028, 
  "启发": 10029, 
  "踊跃": 10030, 
  "绿": 10031, 
  "填妥": 10032, 
  "听证会": 10033, 
  "用具": 10034, 
  "中产": 10035, 
  "sp@@": 10036, 
  "离任": 10037, 
  "pa@@": 10038, 
  "象@@": 10039, 
  "向来": 10040, 
  "united": 10041, 
  "围@@": 10042, 
  "ra": 10043, 
  "电车": 10044, 
  "ja@@": 10045, 
  "译成": 10046, 
  "31.@@": 10047, 
  "公法": 10048, 
  "赢": 10049, 
  "第90": 10050, 
  "干练": 10051, 
  "锁": 10052, 
  "通讯社": 10053, 
  "一流": 10054, 
  "挑起": 10055, 
  "李瑞环": 10056, 
  "水文": 10057, 
  "名列": 10058, 
  "班次": 10059, 
  "测": 10060, 
  "微@@": 10061, 
  "声@@": 10062, 
  "油田": 10063, 
  "长大": 10064, 
  "矿业": 10065, 
  "装载": 10066, 
  "达喀尔": 10067, 
  "证@@": 10068, 
  "平常": 10069, 
  "归@@": 10070, 
  "铺设": 10071, 
  "滑@@": 10072, 
  "乾@@": 10073, 
  "七百@@": 10074, 
  "汉城": 10075, 
  "查处": 10076, 
  "真空": 10077, 
  "折磨": 10078, 
  "完备": 10079, 
  "致以": 10080, 
  "第二十六": 10081, 
  "fa@@": 10082, 
  "识字": 10083, 
  "低廉": 10084, 
  "惠@@": 10085, 
  "呎": 10086, 
  "矿": 10087, 
  "歌曲": 10088, 
  "犯法": 10089, 
  "运输业": 10090, 
  "222": 10091, 
  "全境": 10092, 
  "四十二": 10093, 
  "讲解": 10094, 
  "电费": 10095, 
  "短@@": 10096, 
  "元@@": 10097, 
  "推": 10098, 
  "联系国": 10099, 
  "骚乱": 10100, 
  "填区": 10101, 
  "届会": 10102, 
  "曾否": 10103, 
  "辰": 10104, 
  "可喜": 10105, 
  "89@@": 10106, 
  "埋": 10107, 
  "sbsta": 10108, 
  "检@@": 10109, 
  "军营": 10110, 
  "功夫": 10111, 
  "按钮": 10112, 
  "1.2": 10113, 
  "诉@@": 10114, 
  "印章": 10115, 
  "体育馆": 10116, 
  "1时": 10117, 
  "那边": 10118, 
  "林贝聿嘉": 10119, 
  "事儿": 10120, 
  "劳工界": 10121, 
  "第94": 10122, 
  "著作": 10123, 
  "粤": 10124, 
  "当事国": 10125, 
  "好@@": 10126, 
  "突发": 10127, 
  "动植物": 10128, 
  "倒闭": 10129, 
  "细心": 10130, 
  "纯属": 10131, 
  "重振": 10132, 
  "坐标": 10133, 
  "多万": 10134, 
  "放映": 10135, 
  "甲类": 10136, 
  "加州": 10137, 
  "走进": 10138, 
  "自给自足": 10139, 
  "偏@@": 10140, 
  "五月份": 10141, 
  "傍晚": 10142, 
  "打工": 10143, 
  "涂": 10144, 
  "司令": 10145, 
  "激增": 10146, 
  "落案": 10147, 
  "加薪": 10148, 
  "严@@": 10149, 
  "网友": 10150, 
  "黑点": 10151, 
  "从业员": 10152, 
  "爱好": 10153, 
  "订@@": 10154, 
  "农地": 10155, 
  "化工": 10156, 
  "生病": 10157, 
  "粗@@": 10158, 
  "优越": 10159, 
  "协力": 10160, 
  "wi-fi": 10161, 
  "？生": 10162, 
  "属实": 10163, 
  "开出": 10164, 
  "贯穿": 10165, 
  "小小": 10166, 
  "评税": 10167, 
  "西安": 10168, 
  "准时": 10169, 
  "长江": 10170, 
  "宽带": 10171, 
  "理智": 10172, 
  "详列": 10173, 
  "杜绝": 10174, 
  "大赛": 10175, 
  "唯有": 10176, 
  "中西区": 10177, 
  "s/ac.26": 10178, 
  "寻常": 10179, 
  "复会": 10180, 
  "哭": 10181, 
  "236": 10182, 
  "临时代办": 10183, 
  "疏散": 10184, 
  "第三十": 10185, 
  "排污费": 10186, 
  "拖走": 10187, 
  "第三十四": 10188, 
  "徵税": 10189, 
  "注资": 10190, 
  "1-@@": 10191, 
  "稠密": 10192, 
  "举证": 10193, 
  "十足": 10194, 
  "触及": 10195, 
  "呆": 10196, 
  "打工仔": 10197, 
  "约定": 10198, 
  "推卸": 10199, 
  "省览": 10200, 
  "彩@@": 10201, 
  "克拉@@": 10202, 
  "利亚": 10203, 
  "庆": 10204, 
  "署方": 10205, 
  "九广": 10206, 
  "假@@": 10207, 
  "260": 10208, 
  "衣@@": 10209, 
  "幕": 10210, 
  "九月份": 10211, 
  "30年": 10212, 
  "绝@@": 10213, 
  "改用": 10214, 
  "西铁": 10215, 
  "盛@@": 10216, 
  "五千@@": 10217, 
  "倒@@": 10218, 
  "需求量": 10219, 
  "失踪者": 10220, 
  "清晨": 10221, 
  "za": 10222, 
  "仔": 10223, 
  "机舱": 10224, 
  "帐款": 10225, 
  "残@@": 10226, 
  "热心": 10227, 
  "政局": 10228, 
  "min@@": 10229, 
  "社@@": 10230, 
  "虎@@": 10231, 
  "电气": 10232, 
  "封路": 10233, 
  "泛滥": 10234, 
  "并行": 10235, 
  "调和": 10236, 
  "泊车位": 10237, 
  "包容": 10238, 
  "蓝@@": 10239, 
  "第三十五": 10240, 
  "清水湾": 10241, 
  "第64": 10242, 
  "留待": 10243, 
  "三十三": 10244, 
  "收缴": 10245, 
  "途": 10246, 
  "兵@@": 10247, 
  "杀@@": 10248, 
  "测@@": 10249, 
  "伟@@": 10250, 
  "发展司": 10251, 
  "行动者": 10252, 
  "自发": 10253, 
  "准确性": 10254, 
  "备@@": 10255, 
  "讯": 10256, 
  "历次": 10257, 
  "强有力": 10258, 
  "长青": 10259, 
  "散播": 10260, 
  "辖": 10261, 
  "驱动": 10262, 
  "权威性": 10263, 
  "桩": 10264, 
  "冬天": 10265, 
  "可谓": 10266, 
  "划界": 10267, 
  "捐": 10268, 
  "停顿": 10269, 
  "粗暴": 10270, 
  "认知": 10271, 
  "坦白": 10272, 
  "切断": 10273, 
  "sal@@": 10274, 
  "重重": 10275, 
  "development": 10276, 
  "萨格勒布": 10277, 
  "fi@@": 10278, 
  "拿@@": 10279, 
  "破裂": 10280, 
  "1945年": 10281, 
  "反倾销": 10282, 
  "各行各业": 10283, 
  "抚恤金": 10284, 
  "居然": 10285, 
  "vii": 10286, 
  "抢救": 10287, 
  "病情": 10288, 
  "要件": 10289, 
  "供给": 10290, 
  "练习": 10291, 
  "乔石": 10292, 
  "勒索": 10293, 
  "临时性": 10294, 
  "96@@": 10295, 
  "仿效": 10296, 
  "jo@@": 10297, 
  "圣地": 10298, 
  "用者": 10299, 
  "授课": 10300, 
  "良知": 10301, 
  "第338": 10302, 
  "航机": 10303, 
  "禁@@": 10304, 
  "232": 10305, 
  "度过": 10306, 
  "贝鲁特": 10307, 
  "针": 10308, 
  "药剂": 10309, 
  "红新月会": 10310, 
  "219": 10311, 
  "af@@": 10312, 
  "境地": 10313, 
  "计入": 10314, 
  "商号": 10315, 
  "唱@@": 10316, 
  "聪明": 10317, 
  "圣地亚哥": 10318, 
  "屡次": 10319, 
  "用水": 10320, 
  "起步": 10321, 
  "第74": 10322, 
  "暗@@": 10323, 
  "冷": 10324, 
  "1964年": 10325, 
  "登陆": 10326, 
  "倾销": 10327, 
  "450": 10328, 
  "安曼": 10329, 
  "柱": 10330, 
  "基桑加尼": 10331, 
  "坚持不懈": 10332, 
  "三万": 10333, 
  "超支": 10334, 
  "隆重": 10335, 
  "特拉特洛尔科": 10336, 
  "莱": 10337, 
  "1985": 10338, 
  "误@@": 10339, 
  "优异": 10340, 
  "收盘": 10341, 
  "有别": 10342, 
  "000多": 10343, 
  "普罗": 10344, 
  "房屋司": 10345, 
  "因由": 10346, 
  "ir@@": 10347, 
  "瓦解": 10348, 
  "209": 10349, 
  "租契": 10350, 
  "找寻": 10351, 
  "一万@@": 10352, 
  "溪": 10353, 
  "223": 10354, 
  "蒙特雷": 10355, 
  "评": 10356, 
  "爆": 10357, 
  "摩加迪沙": 10358, 
  "臭氧层": 10359, 
  "控方": 10360, 
  "世界杯": 10361, 
  "不成": 10362, 
  "於@@": 10363, 
  "vo@@": 10364, 
  "报价": 10365, 
  "粒子": 10366, 
  "营区": 10367, 
  "绘画": 10368, 
  "存档": 10369, 
  "e2": 10370, 
  "add.4": 10371, 
  "联手": 10372, 
  "马鞍山": 10373, 
  "探@@": 10374, 
  "蒙": 10375, 
  "第三十七": 10376, 
  "连贯性": 10377, 
  "渔护署": 10378, 
  "别@@": 10379, 
  "199@@": 10380, 
  "长短": 10381, 
  "归纳": 10382, 
  "富国": 10383, 
  "联柬": 10384, 
  "哈佛": 10385, 
  "昌": 10386, 
  "预告": 10387, 
  "化解": 10388, 
  "支@@": 10389, 
  "稳妥": 10390, 
  "赫尔辛基": 10391, 
  "尺度": 10392, 
  "过关": 10393, 
  "来年": 10394, 
  "欠薪": 10395, 
  "水浸": 10396, 
  "今午": 10397, 
  "休假": 10398, 
  "离@@": 10399, 
  "叶利钦": 10400, 
  "薪俸税": 10401, 
  "货@@": 10402, 
  "科技署": 10403, 
  "反美": 10404, 
  "满@@": 10405, 
  "处处": 10406, 
  "编排": 10407, 
  "痛惜": 10408, 
  "诚挚": 10409, 
  "描绘": 10410, 
  "美化": 10411, 
  "录取": 10412, 
  "决定权": 10413, 
  "黎@@": 10414, 
  "寄": 10415, 
  "劳工局": 10416, 
  "开曼": 10417, 
  "供应量": 10418, 
  "借@@": 10419, 
  "个性": 10420, 
  "过渡性": 10421, 
  "适足": 10422, 
  "贤": 10423, 
  "依@@": 10424, 
  "尾@@": 10425, 
  "工商司": 10426, 
  "阿巴斯": 10427, 
  "训研": 10428, 
  "美术": 10429, 
  "省委": 10430, 
  "第81": 10431, 
  "写作": 10432, 
  "泥@@": 10433, 
  "争议性": 10434, 
  "抨击": 10435, 
  "朱镕基": 10436, 
  "一视同仁": 10437, 
  "砍伐": 10438, 
  "分包": 10439, 
  "笼统": 10440, 
  "三千@@": 10441, 
  "传阅": 10442, 
  "上游": 10443, 
  "演播室": 10444, 
  "青山": 10445, 
  "堡": 10446, 
  "五一": 10447, 
  "上将": 10448, 
  "古代": 10449, 
  "争执": 10450, 
  "沿@@": 10451, 
  "纪录册": 10452, 
  "放下": 10453, 
  "th": 10454, 
  "划一": 10455, 
  "过失": 10456, 
  "第70": 10457, 
  "晚宴": 10458, 
  "194": 10459, 
  "○@@": 10460, 
  "九六年": 10461, 
  "刊": 10462, 
  "装修": 10463, 
  "支撑": 10464, 
  "折旧": 10465, 
  "15000": 10466, 
  "4万": 10467, 
  "如上所述": 10468, 
  "数以": 10469, 
  "泰勒": 10470, 
  "法学家": 10471, 
  "抗": 10472, 
  "四十八": 10473, 
  "再造": 10474, 
  "租@@": 10475, 
  "258": 10476, 
  "继而": 10477, 
  "黄色": 10478, 
  "反之": 10479, 
  "自由权": 10480, 
  "再三": 10481, 
  "山道": 10482, 
  "通力": 10483, 
  "11%": 10484, 
  "东行": 10485, 
  "朗": 10486, 
  "落後": 10487, 
  "曾庆红": 10488, 
  "廉洁": 10489, 
  "合力": 10490, 
  "青岛": 10491, 
  "殖民化": 10492, 
  "杂@@": 10493, 
  "we@@": 10494, 
  "居者": 10495, 
  "务必": 10496, 
  "任满": 10497, 
  "嫌犯": 10498, 
  "生死": 10499, 
  "食水": 10500, 
  "角@@": 10501, 
  "责成": 10502, 
  "秋@@": 10503, 
  "大自然": 10504, 
  "全军": 10505, 
  "而@@": 10506, 
  "十月份": 10507, 
  "反思": 10508, 
  "配件": 10509, 
  "多于": 10510, 
  "定性": 10511, 
  "航程": 10512, 
  "历时": 10513, 
  "抛弃": 10514, 
  "毒素": 10515, 
  "核武库": 10516, 
  "1962年": 10517, 
  "港岛区": 10518, 
  "考生": 10519, 
  "商业性": 10520, 
  "喀土穆": 10521, 
  "使用费": 10522, 
  "补选": 10523, 
  "仓": 10524, 
  "助益": 10525, 
  "挤迫": 10526, 
  "就绪": 10527, 
  "两千": 10528, 
  "几千": 10529, 
  "法塔赫": 10530, 
  "以利": 10531, 
  "拨@@": 10532, 
  "房署": 10533, 
  "超额": 10534, 
  "xxi": 10535, 
  "湿地": 10536, 
  "查出": 10537, 
  "权票": 10538, 
  "户主": 10539, 
  "瞩目": 10540, 
  "斗": 10541, 
  "格拉@@": 10542, 
  "池": 10543, 
  "离岛": 10544, 
  "渐渐": 10545, 
  "讼": 10546, 
  "九百@@": 10547, 
  "审@@": 10548, 
  "m.@@": 10549, 
  "贵@@": 10550, 
  "rights": 10551, 
  "阻挡": 10552, 
  "反华": 10553, 
  "妇幼": 10554, 
  "爱情": 10555, 
  "第三十一": 10556, 
  "旗": 10557, 
  "1.1": 10558, 
  "亲王": 10559, 
  "坎@@": 10560, 
  "训": 10561, 
  "艺@@": 10562, 
  "卡拉@@": 10563, 
  "总公司": 10564, 
  "驳斥": 10565, 
  "专访": 10566, 
  "当场": 10567, 
  "佳@@": 10568, 
  "理工": 10569, 
  "稍微": 10570, 
  "第79": 10571, 
  "服务处": 10572, 
  "折衷": 10573, 
  "楼市": 10574, 
  "猫": 10575, 
  "助@@": 10576, 
  "五亿": 10577, 
  "蔑视": 10578, 
  "曲@@": 10579, 
  "邮@@": 10580, 
  "查访": 10581, 
  "204": 10582, 
  "阵营": 10583, 
  "洋": 10584, 
  "看成": 10585, 
  "悼念": 10586, 
  "普": 10587, 
  "皇后": 10588, 
  "ers": 10589, 
  "名人": 10590, 
  "服兵役": 10591, 
  "他国": 10592, 
  "恐慌": 10593, 
  "地租": 10594, 
  "196": 10595, 
  "萨文": 10596, 
  "村@@": 10597, 
  "过境点": 10598, 
  "遗失": 10599, 
  "舰": 10600, 
  "热闹": 10601, 
  "麻管局": 10602, 
  "仲裁员": 10603, 
  "铺": 10604, 
  "身上": 10605, 
  "中南海": 10606, 
  "强@@": 10607, 
  "53@@": 10608, 
  "现@@": 10609, 
  "对峙": 10610, 
  "急救": 10611, 
  "年级": 10612, 
  "变得": 10613, 
  "血统": 10614, 
  "乔治": 10615, 
  "型号": 10616, 
  "元旦": 10617, 
  "沙漠化": 10618, 
  "内涵": 10619, 
  "战区": 10620, 
  "ter": 10621, 
  "法学院": 10622, 
  "zi@@": 10623, 
  "楼面": 10624, 
  "撒@@": 10625, 
  "石头": 10626, 
  "泳池": 10627, 
  "废": 10628, 
  "第三十三": 10629, 
  "第71": 10630, 
  "汇演": 10631, 
  "顾虑": 10632, 
  "惟": 10633, 
  "厂家": 10634, 
  "意@@": 10635, 
  "威慑": 10636, 
  "gh@@": 10637, 
  "字@@": 10638, 
  "选择权": 10639, 
  "97年": 10640, 
  "一体": 10641, 
  "吴": 10642, 
  "les": 10643, 
  "伊斯兰堡": 10644, 
  "特徵": 10645, 
  "列表": 10646, 
  "前述": 10647, 
  "幸存者": 10648, 
  "双向": 10649, 
  "太平": 10650, 
  "全数": 10651, 
  "嘴": 10652, 
  "毒@@": 10653, 
  "海南": 10654, 
  "权@@": 10655, 
  "for@@": 10656, 
  "第二十八": 10657, 
  "行政院": 10658, 
  "盟国": 10659, 
  "雨水": 10660, 
  "倪少杰": 10661, 
  "生命线": 10662, 
  "投弃": 10663, 
  "承诺期": 10664, 
  "管制区": 10665, 
  "夏": 10666, 
  "边远": 10667, 
  "粉岭": 10668, 
  "搜救": 10669, 
  "9月份": 10670, 
  "牟利": 10671, 
  "举动": 10672, 
  "16%": 10673, 
  "亲友": 10674, 
  "厉害": 10675, 
  "ban@@": 10676, 
  "30亿": 10677, 
  "订正案": 10678, 
  "品@@": 10679, 
  "运动场": 10680, 
  "清醒": 10681, 
  "外包": 10682, 
  "英勇": 10683, 
  "影视": 10684, 
  "不善": 10685, 
  "灾": 10686, 
  "引人注目": 10687, 
  "散": 10688, 
  "忠": 10689, 
  "tra@@": 10690, 
  "八百": 10691, 
  "比起": 10692, 
  "西九龙": 10693, 
  "同比": 10694, 
  "后天": 10695, 
  "因果": 10696, 
  "猪肉": 10697, 
  "安道尔": 10698, 
  "宇航员": 10699, 
  "病房": 10700, 
  "滥杀": 10701, 
  "地铁站": 10702, 
  "服@@": 10703, 
  "水电": 10704, 
  "俄文": 10705, 
  "遴选": 10706, 
  "北韩": 10707, 
  "电报": 10708, 
  "四月份": 10709, 
  "署名": 10710, 
  "水泥": 10711, 
  "86@@": 10712, 
  "攻势": 10713, 
  "出口商": 10714, 
  "邪恶": 10715, 
  "办学": 10716, 
  "偶尔": 10717, 
  "a-@@": 10718, 
  "咨委会": 10719, 
  "79@@": 10720, 
  "ad": 10721, 
  "不一": 10722, 
  "排队": 10723, 
  "周刊": 10724, 
  "雄心": 10725, 
  "书店": 10726, 
  "此刻": 10727, 
  "一月份": 10728, 
  "微不足道": 10729, 
  "见@@": 10730, 
  "院士": 10731, 
  "裁武": 10732, 
  "抢": 10733, 
  "弟弟": 10734, 
  "三十七": 10735, 
  "辉煌": 10736, 
  "高楼": 10737, 
  "校@@": 10738, 
  "开工": 10739, 
  "丝": 10740, 
  "防疫": 10741, 
  "北美洲": 10742, 
  "一次性": 10743, 
  "本署": 10744, 
  "消耗性": 10745, 
  "本法": 10746, 
  "优": 10747, 
  "果": 10748, 
  "帝力": 10749, 
  "赶上": 10750, 
  "周四": 10751, 
  "后勤司": 10752, 
  "两千@@": 10753, 
  "西帝汶": 10754, 
  "撞": 10755, 
  "从小": 10756, 
  "巡逻队": 10757, 
  "任@@": 10758, 
  "创@@": 10759, 
  "深厚": 10760, 
  "八十@@": 10761, 
  "辛格": 10762, 
  "有益于": 10763, 
  "恒生": 10764, 
  "224": 10765, 
  "翻新": 10766, 
  "酬": 10767, 
  "弹道": 10768, 
  "救生艇": 10769, 
  "帕劳": 10770, 
  "试问": 10771, 
  "默@@": 10772, 
  "吸@@": 10773, 
  "压倒": 10774, 
  "253": 10775, 
  "告示": 10776, 
  "me": 10777, 
  "conf.157": 10778, 
  "低座": 10779, 
  "以西": 10780, 
  "小学生": 10781, 
  "不堪": 10782, 
  "炸死": 10783, 
  "违犯": 10784, 
  "题材": 10785, 
  "何世柱": 10786, 
  "有意思": 10787, 
  "无偿": 10788, 
  "逼": 10789, 
  "遣散费": 10790, 
  "多方": 10791, 
  "205": 10792, 
  "敏感性": 10793, 
  "图案": 10794, 
  "旋风": 10795, 
  "片面": 10796, 
  "午夜": 10797, 
  "立例": 10798, 
  "贸易署": 10799, 
  "ly": 10800, 
  "灵@@": 10801, 
  "反击": 10802, 
  "旧金山": 10803, 
  "相当於": 10804, 
  "公升": 10805, 
  "接下来": 10806, 
  "兽医": 10807, 
  "审计署": 10808, 
  "卓有": 10809, 
  "新界区": 10810, 
  "尴尬": 10811, 
  "肉@@": 10812, 
  "幻想": 10813, 
  "0.7%": 10814, 
  "君": 10815, 
  "丑闻": 10816, 
  "获利": 10817, 
  "蒙特塞拉特": 10818, 
  "跟着": 10819, 
  "退回": 10820, 
  "北非": 10821, 
  "主教": 10822, 
  "对外": 10823, 
  "琴": 10824, 
  "开业": 10825, 
  "反导": 10826, 
  "门口": 10827, 
  "起立": 10828, 
  "遗体": 10829, 
  "巴士站": 10830, 
  "不理": 10831, 
  "影像": 10832, 
  "信赖": 10833, 
  "凝聚": 10834, 
  "劫案": 10835, 
  "发掘": 10836, 
  "悲痛": 10837, 
  "迫击炮弹": 10838, 
  "展@@": 10839, 
  "致@@": 10840, 
  "us": 10841, 
  "奇迹": 10842, 
  "航空器": 10843, 
  "热切": 10844, 
  "签@@": 10845, 
  "真主党": 10846, 
  "del": 10847, 
  "李肇星": 10848, 
  "取用": 10849, 
  "可卡因": 10850, 
  "剂量": 10851, 
  "汗": 10852, 
  "集合": 10853, 
  "70万": 10854, 
  "命名": 10855, 
  "您好": 10856, 
  "遇上": 10857, 
  "会前": 10858, 
  "联莫": 10859, 
  "逃犯": 10860, 
  "车间": 10861, 
  "诚然": 10862, 
  "闹": 10863, 
  "粉": 10864, 
  "生产商": 10865, 
  "激进": 10866, 
  "召集人": 10867, 
  "附庸": 10868, 
  "生理": 10869, 
  "迷@@": 10870, 
  "17%": 10871, 
  "微观": 10872, 
  "汇款": 10873, 
  "犹豫": 10874, 
  "电联": 10875, 
  "七千@@": 10876, 
  "盟友": 10877, 
  "自助": 10878, 
  "陶@@": 10879, 
  "ca@@": 10880, 
  "必需品": 10881, 
  "做@@": 10882, 
  "击中": 10883, 
  "恪守": 10884, 
  "折扣": 10885, 
  "医@@": 10886, 
  "窗": 10887, 
  "维多利亚": 10888, 
  "季@@": 10889, 
  "娜": 10890, 
  "辞去": 10891, 
  "图谋": 10892, 
  "一百五十": 10893, 
  "阿族": 10894, 
  "美金": 10895, 
  "副委员长": 10896, 
  "土发": 10897, 
  "九一年": 10898, 
  "智力": 10899, 
  "反抗": 10900, 
  "选举法": 10901, 
  "尼亚@@": 10902, 
  "87@@": 10903, 
  "矿产": 10904, 
  "强国": 10905, 
  "炮": 10906, 
  "税@@": 10907, 
  "演@@": 10908, 
  "150万": 10909, 
  "奖项": 10910, 
  "素@@": 10911, 
  "邮政署": 10912, 
  "没错": 10913, 
  "占用人": 10914, 
  "医治": 10915, 
  "铅": 10916, 
  "餐": 10917, 
  "申述": 10918, 
  "确定性": 10919, 
  "幺": 10920, 
  "好事": 10921, 
  "复杂化": 10922, 
  "ec@@": 10923, 
  "吓": 10924, 
  "重案": 10925, 
  "黑海": 10926, 
  "yu@@": 10927, 
  "张鉴泉": 10928, 
  "50多": 10929, 
  "病假": 10930, 
  "264": 10931, 
  "ko": 10932, 
  "徐州市": 10933, 
  "水警": 10934, 
  "简明": 10935, 
  "服务所": 10936, 
  "恳请": 10937, 
  "失当": 10938, 
  "2.1": 10939, 
  "译": 10940, 
  "世人": 10941, 
  "坚@@": 10942, 
  "调停": 10943, 
  "庆@@": 10944, 
  "医学院": 10945, 
  "联军": 10946, 
  "术": 10947, 
  "别国": 10948, 
  "五十多": 10949, 
  "罕见": 10950, 
  "效": 10951, 
  "第98": 10952, 
  "着陆": 10953, 
  "宪兵": 10954, 
  "右翼": 10955, 
  "自律": 10956, 
  "第105": 10957, 
  "1946年": 10958, 
  "刻": 10959, 
  "重演": 10960, 
  "金融业": 10961, 
  "川": 10962, 
  "民航处": 10963, 
  "天空": 10964, 
  "马逢国": 10965, 
  "埃尔@@": 10966, 
  "驶": 10967, 
  "烧": 10968, 
  "抽签": 10969, 
  "艺": 10970, 
  "膨胀": 10971, 
  "麻@@": 10972, 
  "口粮": 10973, 
  "领导层": 10974, 
  "以防": 10975, 
  "林钜成": 10976, 
  "1987": 10977, 
  "转而": 10978, 
  "掩饰": 10979, 
  "从业": 10980, 
  "237": 10981, 
  "付@@": 10982, 
  "world": 10983, 
  "充作": 10984, 
  "甄别": 10985, 
  "m.b.e.": 10986, 
  "赠送": 10987, 
  "1970年代": 10988, 
  "显@@": 10989, 
  "临近": 10990, 
  "大师": 10991, 
  "下月": 10992, 
  "2007": 10993, 
  "重播": 10994, 
  "六百": 10995, 
  "中山": 10996, 
  "二十万": 10997, 
  "买家": 10998, 
  "截查": 10999, 
  "228": 11000, 
  "21@@": 11001, 
  "文革": 11002, 
  "八点@@": 11003, 
  "脚@@": 11004, 
  "第三十二": 11005, 
  "要是": 11006, 
  "上水": 11007, 
  "绘制": 11008, 
  "达鲁萨兰国": 11009, 
  "情感": 11010, 
  "整整": 11011, 
  "开除": 11012, 
  "在野党": 11013, 
  "获胜": 11014, 
  "吕秀莲": 11015, 
  "房产": 11016, 
  "酸": 11017, 
  "80万": 11018, 
  "坦@@": 11019, 
  "房协": 11020, 
  "名叫": 11021, 
  "耀@@": 11022, 
  "两三": 11023, 
  "离去": 11024, 
  "过重": 11025, 
  "情报局": 11026, 
  "营利": 11027, 
  "节@@": 11028, 
  "上诉人": 11029, 
  "穿着": 11030, 
  "特首": 11031, 
  "取决": 11032, 
  "惠及": 11033, 
  "-e": 11034, 
  "劳顾会": 11035, 
  "敌意": 11036, 
  "绝非": 11037, 
  "扫除": 11038, 
  "33.@@": 11039, 
  "放慢": 11040, 
  "库务司": 11041, 
  "儿女": 11042, 
  "游击队": 11043, 
  "民调": 11044, 
  "哈瓦那": 11045, 
  "渡过": 11046, 
  "拆@@": 11047, 
  "耳@@": 11048, 
  "任由": 11049, 
  "编码": 11050, 
  "撤走": 11051, 
  "下游": 11052, 
  "彼得": 11053, 
  "㈡@@": 11054, 
  "历程": 11055, 
  "大体": 11056, 
  "幼儿园": 11057, 
  "期盼": 11058, 
  "核数": 11059, 
  "有史以来": 11060, 
  "男@@": 11061, 
  "九龙区": 11062, 
  "居@@": 11063, 
  "丰": 11064, 
  "煤": 11065, 
  "批判": 11066, 
  "远洋": 11067, 
  "滋生": 11068, 
  "存储": 11069, 
  "轮换": 11070, 
  "九八": 11071, 
  "面谈": 11072, 
  "灵": 11073, 
  "细致": 11074, 
  "悉尼": 11075, 
  "名词": 11076, 
  "走过": 11077, 
  "市面": 11078, 
  "普惠制": 11079, 
  "细胞": 11080, 
  "不定": 11081, 
  "性行为": 11082, 
  "邮寄": 11083, 
  "相处": 11084, 
  "发言权": 11085, 
  "殷切": 11086, 
  "枢密院": 11087, 
  "280": 11088, 
  "一千多": 11089, 
  "ka@@": 11090, 
  "整修": 11091, 
  "aw@@": 11092, 
  "传说": 11093, 
  "偷渡": 11094, 
  "统@@": 11095, 
  "奖券": 11096, 
  "land": 11097, 
  "听@@": 11098, 
  "屏幕": 11099, 
  "疗法": 11100, 
  "归入": 11101, 
  "四千@@": 11102, 
  "出自": 11103, 
  "棵": 11104, 
  "万一": 11105, 
  "秀@@": 11106, 
  "圣卢西亚": 11107, 
  "创下": 11108, 
  "夺得": 11109, 
  "伯利恒": 11110, 
  "衣物": 11111, 
  "梅": 11112, 
  "哥": 11113, 
  "偷@@": 11114, 
  "小区": 11115, 
  "肺": 11116, 
  "休@@": 11117, 
  "运河": 11118, 
  "布拉@@": 11119, 
  "房价": 11120, 
  "掌声": 11121, 
  "司答": 11122, 
  "宣判": 11123, 
  "com": 11124, 
  "目击者": 11125, 
  "香港仔": 11126, 
  "碳": 11127, 
  "赤@@": 11128, 
  "居於": 11129, 
  "盘@@": 11130, 
  "根深蒂固": 11131, 
  "间断": 11132, 
  "不许": 11133, 
  "设@@": 11134, 
  "with": 11135, 
  "ca": 11136, 
  "成文": 11137, 
  "听闻": 11138, 
  "238": 11139, 
  "西行": 11140, 
  "aa": 11141, 
  "甲@@": 11142, 
  "捐助界": 11143, 
  "不禁": 11144, 
  "外经贸部": 11145, 
  "销售税": 11146, 
  "变数": 11147, 
  "养殖": 11148, 
  "纤维": 11149, 
  "t.@@": 11150, 
  "五十五": 11151, 
  "牢房": 11152, 
  "饮用": 11153, 
  "联机": 11154, 
  "上星期": 11155, 
  "陈国强": 11156, 
  "原材料": 11157, 
  "软@@": 11158, 
  "秋季": 11159, 
  "检取": 11160, 
  "翻修": 11161, 
  "a/ac.261": 11162, 
  "班子": 11163, 
  "代为": 11164, 
  "无私": 11165, 
  "打交道": 11166, 
  "黑烟": 11167, 
  "v.@@": 11168, 
  "apec": 11169, 
  "紧@@": 11170, 
  "巴解": 11171, 
  "杆菌": 11172, 
  "排出": 11173, 
  "投诉人": 11174, 
  "九龙城": 11175, 
  "走访": 11176, 
  "中毒": 11177, 
  "倚赖": 11178, 
  "击@@": 11179, 
  "高潮": 11180, 
  "竭尽所能": 11181, 
  "刚好": 11182, 
  "评@@": 11183, 
  "么": 11184, 
  "始于": 11185, 
  "辨认": 11186, 
  "说成": 11187, 
  "mr": 11188, 
  "避@@": 11189, 
  "会议席": 11190, 
  "车厢": 11191, 
  "克族": 11192, 
  "㈠@@": 11193, 
  "45%": 11194, 
  "亲戚": 11195, 
  "爆@@": 11196, 
  "狭隘": 11197, 
  "东帝": 11198, 
  "德.@@": 11199, 
  "承保": 11200, 
  "全心全意": 11201, 
  "信奉": 11202, 
  "争拗": 11203, 
  "ea-6b型": 11204, 
  "移@@": 11205, 
  "地形": 11206, 
  "遗@@": 11207, 
  "1000万": 11208, 
  "有鉴于此": 11209, 
  "men@@": 11210, 
  "泛美": 11211, 
  "c&m™": 11212, 
  "乐於": 11213, 
  "卡尔@@": 11214, 
  "筛选": 11215, 
  "惠益": 11216, 
  "积@@": 11217, 
  "原状": 11218, 
  "坠毁": 11219, 
  "军机": 11220, 
  "1986": 11221, 
  "连串": 11222, 
  "盛": 11223, 
  "消委会": 11224, 
  "坑": 11225, 
  "华南": 11226, 
  "哥@@": 11227, 
  "柏@@": 11228, 
  "25000": 11229, 
  "引爆": 11230, 
  "lo": 11231, 
  "隶属": 11232, 
  "四十一": 11233, 
  "底@@": 11234, 
  "假冒": 11235, 
  "诈骗": 11236, 
  "报警": 11237, 
  "七月份": 11238, 
  "高涨": 11239, 
  "汇点": 11240, 
  "64@@": 11241, 
  "参@@": 11242, 
  "水利": 11243, 
  "瓦努阿图": 11244, 
  "地区性": 11245, 
  "协": 11246, 
  "建物": 11247, 
  "卸任": 11248, 
  "潜能": 11249, 
  "捐献": 11250, 
  "编队": 11251, 
  "凤@@": 11252, 
  "语@@": 11253, 
  "警": 11254, 
  "财产权": 11255, 
  "委员们": 11256, 
  "台湾人": 11257, 
  "团员": 11258, 
  "睡觉": 11259, 
  "小时候": 11260, 
  "点票": 11261, 
  "一手": 11262, 
  "视@@": 11263, 
  "还款": 11264, 
  "患病": 11265, 
  "采行": 11266, 
  "舍": 11267, 
  "恶@@": 11268, 
  "中间人": 11269, 
  "二月份": 11270, 
  "政客": 11271, 
  "401": 11272, 
  "基数": 11273, 
  "分派": 11274, 
  "渔@@": 11275, 
  "埋设": 11276, 
  "收紧": 11277, 
  "四十多": 11278, 
  "母@@": 11279, 
  "den@@": 11280, 
  "程介南": 11281, 
  "怀@@": 11282, 
  "议@@": 11283, 
  "图书": 11284, 
  "天天": 11285, 
  "成衣": 11286, 
  "府": 11287, 
  "贝": 11288, 
  "筒": 11289, 
  "空缺率": 11290, 
  "救@@": 11291, 
  "夜@@": 11292, 
  "陈智思": 11293, 
  "兵役": 11294, 
  "妓女": 11295, 
  "录影带": 11296, 
  "丁午寿": 11297, 
  "边际化": 11298, 
  "部委": 11299, 
  "勋章": 11300, 
  "温暖": 11301, 
  "6月份": 11302, 
  "e4": 11303, 
  "67@@": 11304, 
  "工业区": 11305, 
  "信息化": 11306, 
  "成败": 11307, 
  "德拉@@": 11308, 
  "东北部": 11309, 
  "a-0": 11310, 
  "龄": 11311, 
  "阿布@@": 11312, 
  "一路": 11313, 
  "安圭拉": 11314, 
  "体罚": 11315, 
  "虎": 11316, 
  "ph@@": 11317, 
  "卅": 11318, 
  "千禧": 11319, 
  "1980": 11320, 
  "四方": 11321, 
  "第96": 11322, 
  "令状": 11323, 
  "起初": 11324, 
  "兴起": 11325, 
  "平安": 11326, 
  "30多": 11327, 
  "1b": 11328, 
  "残余": 11329, 
  "巴尔@@": 11330, 
  "电动": 11331, 
  "实时": 11332, 
  "ss@@": 11333, 
  "百分之三": 11334, 
  "归功": 11335, 
  "诚": 11336, 
  "产前": 11337, 
  "年龄组": 11338, 
  "渠务署": 11339, 
  "小於": 11340, 
  "cerd": 11341, 
  "1.5": 11342, 
  "洄游": 11343, 
  "斗@@": 11344, 
  "核军备": 11345, 
  "兼职": 11346, 
  "糟糕": 11347, 
  "50亿": 11348, 
  "牙": 11349, 
  "纾解": 11350, 
  "斯.@@": 11351, 
  "ch": 11352, 
  "摩苏尔": 11353, 
  "渔农": 11354, 
  "sbi": 11355, 
  "大堂": 11356, 
  "简报会": 11357, 
  "结业": 11358, 
  "物色": 11359, 
  "平壤": 11360, 
  "症状": 11361, 
  "韩国人": 11362, 
  "建筑业": 11363, 
  "法学": 11364, 
  "装甲": 11365, 
  "怪": 11366, 
  "态势": 11367, 
  "协@@": 11368, 
  "不及": 11369, 
  "旋风式": 11370, 
  "吴清辉": 11371, 
  "温": 11372, 
  "高加索": 11373, 
  "挂@@": 11374, 
  "桌": 11375, 
  "适@@": 11376, 
  "隐@@": 11377, 
  "断言": 11378, 
  "交接": 11379, 
  "六千@@": 11380, 
  "2.5": 11381, 
  "东斯拉沃尼亚": 11382, 
  "纵向": 11383, 
  "2.5%": 11384, 
  "讲@@": 11385, 
  "二零零八年": 11386, 
  "汤@@": 11387, 
  "阴@@": 11388, 
  "期@@": 11389, 
  "贫": 11390, 
  "掀起": 11391, 
  "229": 11392, 
  "推算": 11393, 
  "漫画": 11394, 
  "宽@@": 11395, 
  "her@@": 11396, 
  "稀少": 11397, 
  "甚或": 11398, 
  "挖": 11399, 
  "阿里斯蒂德": 11400, 
  "i.@@": 11401, 
  "裨益": 11402, 
  "擦": 11403, 
  "ce": 11404, 
  "初等": 11405, 
  "总和": 11406, 
  "轿车": 11407, 
  "跑道": 11408, 
  "安卡拉": 11409, 
  "控@@": 11410, 
  "广□": 11411, 
  "245": 11412, 
  "饥荒": 11413, 
  "台币": 11414, 
  "??": 11415, 
  "射": 11416, 
  "ben@@": 11417, 
  "米洛舍维奇": 11418, 
  "妈": 11419, 
  "过量": 11420, 
  "烈士": 11421, 
  "值得一提": 11422, 
  "一九九九": 11423, 
  "00多": 11424, 
  "凝聚力": 11425, 
  "90年代": 11426, 
  "带走": 11427, 
  "有望": 11428, 
  "误会": 11429, 
  "ki@@": 11430, 
  "惊@@": 11431, 
  "保全": 11432, 
  "留学": 11433, 
  "景象": 11434, 
  "第iii": 11435, 
  "顶@@": 11436, 
  "第95": 11437, 
  "新台币": 11438, 
  "上层": 11439, 
  "pre@@": 11440, 
  "果@@": 11441, 
  "客车": 11442, 
  "穆罕默德": 11443, 
  "申请表": 11444, 
  "98@@": 11445, 
  "急切": 11446, 
  "河北": 11447, 
  "男生": 11448, 
  "l.4": 11449, 
  "338": 11450, 
  "待@@": 11451, 
  "陈旧": 11452, 
  "pu@@": 11453, 
  "00万": 11454, 
  "入院": 11455, 
  "五分之一": 11456, 
  "剧烈": 11457, 
  "发还": 11458, 
  "朗@@": 11459, 
  "动向": 11460, 
  "rev.2": 11461, 
  "紧迫性": 11462, 
  "学徒": 11463, 
  "半价": 11464, 
  "体积": 11465, 
  "略为": 11466, 
  "一九九○年": 11467, 
  "不同于": 11468, 
  "ds": 11469, 
  "人间": 11470, 
  "程@@": 11471, 
  "一刻": 11472, 
  "头脑": 11473, 
  "前不久": 11474, 
  "六月份": 11475, 
  "警监": 11476, 
  "ga@@": 11477, 
  "实属": 11478, 
  "布局": 11479, 
  "升高": 11480, 
  "胎": 11481, 
  "存户": 11482, 
  "2878": 11483, 
  "师@@": 11484, 
  "感@@": 11485, 
  "劳动法": 11486, 
  "无从": 11487, 
  "成都": 11488, 
  "四处": 11489, 
  "百分之二十": 11490, 
  "联营": 11491, 
  "个体": 11492, 
  "糟": 11493, 
  "轻铁": 11494, 
  "茨@@": 11495, 
  "堵塞": 11496, 
  "反对者": 11497, 
  "65@@": 11498, 
  "圣诞": 11499, 
  "大肆": 11500, 
  "专机": 11501, 
  "传召": 11502, 
  "恫吓": 11503, 
  "举@@": 11504, 
  "泽": 11505, 
  "九二年": 11506, 
  "图形": 11507, 
  "转往": 11508, 
  "尖锐": 11509, 
  "共产主义": 11510, 
  "谈判桌": 11511, 
  "inter@@": 11512, 
  "出版组": 11513, 
  "间谍": 11514, 
  "铺@@": 11515, 
  "趁": 11516, 
  "分部": 11517, 
  "南极洲": 11518, 
  "被访者": 11519, 
  "远景": 11520, 
  "退役": 11521, 
  "世代": 11522, 
  "枢纽": 11523, 
  "独": 11524, 
  "吹@@": 11525, 
  "力争": 11526, 
  "0%": 11527, 
  "逐@@": 11528, 
  "开车": 11529, 
  "东道主": 11530, 
  "救生": 11531, 
  "一九九七": 11532, 
  "挑战性": 11533, 
  "罪@@": 11534, 
  "第二十九": 11535, 
  "扣查": 11536, 
  "第a": 11537, 
  "心脏": 11538, 
  "废水": 11539, 
  "05": 11540, 
  "九四": 11541, 
  "sk@@": 11542, 
  "研拟": 11543, 
  "d-2": 11544, 
  "jan": 11545, 
  "无知": 11546, 
  "智@@": 11547, 
  "暂缓": 11548, 
  "羊": 11549, 
  "勤奋": 11550, 
  "共@@": 11551, 
  "生气": 11552, 
  "主义者": 11553, 
  "进食": 11554, 
  "石化": 11555, 
  "惩教": 11556, 
  "倒塌": 11557, 
  "商业区": 11558, 
  "院@@": 11559, 
  "含@@": 11560, 
  "午餐": 11561, 
  "第93": 11562, 
  "裁断": 11563, 
  "一亿@@": 11564, 
  "农田": 11565, 
  "象徵": 11566, 
  "顺差": 11567, 
  "248": 11568, 
  "占领土": 11569, 
  "厘订": 11570, 
  "高棉": 11571, 
  "明类": 11572, 
  "祖先": 11573, 
  "墨": 11574, 
  "若@@": 11575, 
  "衡平": 11576, 
  "同僚": 11577, 
  "一千@@": 11578, 
  "王金平": 11579, 
  "集资": 11580, 
  "诠释": 11581, 
  "四点@@": 11582, 
  "喷@@": 11583, 
  "旅@@": 11584, 
  "15万": 11585, 
  "钦佩": 11586, 
  "背@@": 11587, 
  "政改": 11588, 
  "超速": 11589, 
  "柜": 11590, 
  "师生": 11591, 
  "苏格兰": 11592, 
  "杭州": 11593, 
  "咭": 11594, 
  "弃": 11595, 
  "事关": 11596, 
  "货柜车": 11597, 
  "2005": 11598, 
  "做事": 11599, 
  "八百@@": 11600, 
  "晓@@": 11601, 
  "负上": 11602, 
  "写入": 11603, 
  "239": 11604, 
  "污染者": 11605, 
  "禁产": 11606, 
  "外侨": 11607, 
  "以东": 11608, 
  "转给": 11609, 
  "逊尼派": 11610, 
  "推动力": 11611, 
  "观赏": 11612, 
  "猖獗": 11613, 
  "楼梯": 11614, 
  "罗姆人": 11615, 
  "起源": 11616, 
  "录@@": 11617, 
  "同性恋": 11618, 
  "萧@@": 11619, 
  "战斗力": 11620, 
  "神经": 11621, 
  "触发": 11622, 
  "无情": 11623, 
  "致死": 11624, 
  "翠@@": 11625, 
  "心灵": 11626, 
  "金正日": 11627, 
  "屋@@": 11628, 
  "情景": 11629, 
  "4.3": 11630, 
  "水务": 11631, 
  "房@@": 11632, 
  "写成": 11633, 
  "22%": 11634, 
  "a/c.2": 11635, 
  "卜拉希米": 11636, 
  "第973": 11637, 
  "回头": 11638, 
  "传授": 11639, 
  "暴乱": 11640, 
  "叙": 11641, 
  "组长": 11642, 
  "骗": 11643, 
  "仁@@": 11644, 
  "1600": 11645, 
  "1959年": 11646, 
  "前年": 11647, 
  "抢@@": 11648, 
  "迁离": 11649, 
  "可悲": 11650, 
  "佐@@": 11651, 
  "镇@@": 11652, 
  "牙@@": 11653, 
  "朝@@": 11654, 
  "冗长": 11655, 
  "山地": 11656, 
  "㈥": 11657, 
  "接连": 11658, 
  "婚": 11659, 
  "专利权": 11660, 
  "年终": 11661, 
  "审视": 11662, 
  "粒": 11663, 
  "整套": 11664, 
  "构筑物": 11665, 
  "签定": 11666, 
  "细分": 11667, 
  "未决": 11668, 
  "04": 11669, 
  "re": 11670, 
  "三百多": 11671, 
  "宾馆": 11672, 
  "初始": 11673, 
  "蹂躏": 11674, 
  "表彰": 11675, 
  "能见度": 11676, 
  "默克尔": 11677, 
  "绳": 11678, 
  "弄@@": 11679, 
  "斯特": 11680, 
  "瓜@@": 11681, 
  "隆@@": 11682, 
  "执勤": 11683, 
  "传闻": 11684, 
  "有序": 11685, 
  "梁锦松": 11686, 
  "食物权": 11687, 
  "胜@@": 11688, 
  "商量": 11689, 
  "输@@": 11690, 
  "占地": 11691, 
  "军售": 11692, 
  "稍为": 11693, 
  "虚@@": 11694, 
  "明斯克": 11695, 
  "阿尔及尔": 11696, 
  "l.5": 11697, 
  "高峰期": 11698, 
  "加班": 11699, 
  "管理者": 11700, 
  "消减": 11701, 
  "喊": 11702, 
  "禁飞区": 11703, 
  "火星": 11704, 
  "荣毅仁": 11705, 
  "预订": 11706, 
  "dis@@": 11707, 
  "导": 11708, 
  "丽": 11709, 
  "服务队": 11710, 
  "@@@": 11711, 
  "鲁": 11712, 
  "第78": 11713, 
  "cn.6": 11714, 
  "模范": 11715, 
  "承租人": 11716, 
  "审问": 11717, 
  "沙漠": 11718, 
  "亚洲区": 11719, 
  "妨害": 11720, 
  "10月份": 11721, 
  "2.2": 11722, 
  "副院长": 11723, 
  "身亡": 11724, 
  "中国队": 11725, 
  "中间价": 11726, 
  "中学生": 11727, 
  "敬@@": 11728, 
  "ment": 11729, 
  "游乐场": 11730, 
  "第91": 11731, 
  "健@@": 11732, 
  "影@@": 11733, 
  "喜爱": 11734, 
  "辖区": 11735, 
  "猛烈": 11736, 
  "银": 11737, 
  "八月份": 11738, 
  "临立会": 11739, 
  "第92": 11740, 
  "开心": 11741, 
  "窗口": 11742, 
  "jabal": 11743, 
  "本港": 11744, 
  "百分之一": 11745, 
  "南朝鲜": 11746, 
  "光辉": 11747, 
  "考察团": 11748, 
  "雪": 11749, 
  "董@@": 11750, 
  "四千": 11751, 
  "迎来": 11752, 
  "金牌": 11753, 
  "跳@@": 11754, 
  "候": 11755, 
  "送给": 11756, 
  "坚守": 11757, 
  "du": 11758, 
  "今晨": 11759, 
  "覆盖率": 11760, 
  "安徽": 11761, 
  "内河": 11762, 
  "处事": 11763, 
  "教育权": 11764, 
  "投票人": 11765, 
  "薪级": 11766, 
  "监@@": 11767, 
  "签约": 11768, 
  "受制": 11769, 
  "浸": 11770, 
  "百分之二": 11771, 
  "帮忙": 11772, 
  "括号": 11773, 
  "皮肤": 11774, 
  "可爱": 11775, 
  "运抵": 11776, 
  "爆炸案": 11777, 
  "塑胶": 11778, 
  "二三@@": 11779, 
  "静@@": 11780, 
  "汇丰": 11781, 
  "蒙罗维亚": 11782, 
  "公安部": 11783, 
  "孙": 11784, 
  "兼任": 11785, 
  "导游": 11786, 
  "震@@": 11787, 
  "学系": 11788, 
  "ten@@": 11789, 
  "登革热": 11790, 
  "领海": 11791, 
  "ev@@": 11792, 
  "规□": 11793, 
  "薄": 11794, 
  "总的": 11795, 
  "纳粹": 11796, 
  "gar@@": 11797, 
  "春运": 11798, 
  "37.@@": 11799, 
  "火车站": 11800, 
  "发病": 11801, 
  "赦免": 11802, 
  "二万": 11803, 
  "复本": 11804, 
  "行星": 11805, 
  "倾泻": 11806, 
  "高额": 11807, 
  "壮大": 11808, 
  "深海": 11809, 
  "市@@": 11810, 
  "事务员额": 11811, 
  "凭借": 11812, 
  "700万": 11813, 
  "告@@": 11814, 
  "卡拉巴赫": 11815, 
  "征@@": 11816, 
  "升@@": 11817, 
  "告诫": 11818, 
  "杆": 11819, 
  "押": 11820, 
  "der@@": 11821, 
  "核电站": 11822, 
  "200000": 11823, 
  "女孩子": 11824, 
  "覆盖面": 11825, 
  "套@@": 11826, 
  "驶入": 11827, 
  "擦鞋": 11828, 
  "强权": 11829, 
  "h.@@": 11830, 
  "港商": 11831, 
  "第86": 11832, 
  "顺": 11833, 
  "朋友们": 11834, 
  "进攻性": 11835, 
  "适度": 11836, 
  "柯@@": 11837, 
  "组@@": 11838, 
  "遗漏": 11839, 
  "法理": 11840, 
  "吃惊": 11841, 
  "教练": 11842, 
  "010": 11843, 
  "逐年": 11844, 
  "勉强": 11845, 
  "戈马": 11846, 
  "协约": 11847, 
  "天地": 11848, 
  "返国": 11849, 
  "外销": 11850, 
  "急速": 11851, 
  "鲍磊": 11852, 
  "新闻组": 11853, 
  "85%": 11854, 
  "共同点": 11855, 
  "第132": 11856, 
  "造型": 11857, 
  "无误": 11858, 
  "唱片": 11859, 
  "一九九八": 11860, 
  "~": 11861, 
  "看好": 11862, 
  "复审": 11863, 
  "铜@@": 11864, 
  "痕迹": 11865, 
  "长洲": 11866, 
  "mb@@": 11867, 
  "黎": 11868, 
  "四十七": 11869, 
  "ms": 11870, 
  "对开": 11871, 
  "禁制": 11872, 
  "简述": 11873, 
  "吕明华": 11874, 
  "若是": 11875, 
  "盘存": 11876, 
  "说服力": 11877, 
  "罔顾": 11878, 
  "l.7": 11879, 
  "学到": 11880, 
  "预付": 11881, 
  "组件": 11882, 
  "色@@": 11883, 
  "牛津": 11884, 
  "星球": 11885, 
  "支助处": 11886, 
  "护": 11887, 
  "天线": 11888, 
  "年资": 11889, 
  "黑暗": 11890, 
  "合伙": 11891, 
  "药剂业": 11892, 
  "杀虫剂": 11893, 
  "误": 11894, 
  "防灾": 11895, 
  "100日": 11896, 
  "gen@@": 11897, 
  "入伍": 11898, 
  "无记名": 11899, 
  "缴税": 11900, 
  "热门": 11901, 
  "遗骸": 11902, 
  "ke": 11903, 
  "大片": 11904, 
  "按期": 11905, 
  "所得税": 11906, 
  "论证": 11907, 
  "常识": 11908, 
  "过後": 11909, 
  "二八@@": 11910, 
  "人流": 11911, 
  "转播": 11912, 
  "生殖器官": 11913, 
  "金门": 11914, 
  "ke@@": 11915, 
  "理工学院": 11916, 
  "保单": 11917, 
  "禽畜": 11918, 
  "副书记": 11919, 
  "二千年": 11920, 
  "制图": 11921, 
  "速@@": 11922, 
  "恶意": 11923, 
  "填@@": 11924, 
  "马尔@@": 11925, 
  "经管": 11926, 
  "251": 11927, 
  "谈@@": 11928, 
  "生机": 11929, 
  "长沙湾": 11930, 
  "棒": 11931, 
  "激光": 11932, 
  "经纪人": 11933, 
  "穿梭": 11934, 
  "非官方": 11935, 
  "专职": 11936, 
  "开明": 11937, 
  "249": 11938, 
  "芬": 11939, 
  "封面": 11940, 
  "扶@@": 11941, 
  "迎合": 11942, 
  "撮": 11943, 
  "瑞": 11944, 
  "30000": 11945, 
  "巨@@": 11946, 
  "二四@@": 11947, 
  "第七十三": 11948, 
  "wa": 11949, 
  "van": 11950, 
  "干净": 11951, 
  "263": 11952, 
  "采购司": 11953, 
  "利于": 11954, 
  "同事们": 11955, 
  "耳": 11956, 
  "战犯": 11957, 
  "薪水": 11958, 
  "高校": 11959, 
  "在线": 11960, 
  "山泥": 11961, 
  "大肠": 11962, 
  "授": 11963, 
  "卫@@": 11964, 
  "矫正": 11965, 
  "背离": 11966, 
  "贫困者": 11967, 
  "抉择": 11968, 
  "ati@@": 11969, 
  "nations": 11970, 
  "南美洲": 11971, 
  "源头": 11972, 
  "战事": 11973, 
  "拨入": 11974, 
  "休闲": 11975, 
  "码": 11976, 
  "800万": 11977, 
  "ya@@": 11978, 
  "天文": 11979, 
  "雾": 11980, 
  "范本": 11981, 
  "兆@@": 11982, 
  "哇": 11983, 
  "抗日": 11984, 
  "控制区": 11985, 
  "1981": 11986, 
  "决议题": 11987, 
  "审阅": 11988, 
  "前期": 11989, 
  "同年": 11990, 
  "地缘": 11991, 
  "截然不同": 11992, 
  "最@@": 11993, 
  "健": 11994, 
  "国籍法": 11995, 
  "黑龙江": 11996, 
  "七点@@": 11997, 
  "边@@": 11998, 
  "心声": 11999, 
  "航海": 12000, 
  "二万@@": 12001, 
  "核电": 12002, 
  "环境法": 12003, 
  "拍照": 12004, 
  "贺@@": 12005, 
  "投票率": 12006, 
  "罗祥国": 12007, 
  "酒楼": 12008, 
  "月刊": 12009, 
  "烧毁": 12010, 
  "a/c.3": 12011, 
  "城区": 12012, 
  "没什么": 12013, 
  "有名": 12014, 
  "台大": 12015, 
  "缘故": 12016, 
  "诽谤": 12017, 
  "34.@@": 12018, 
  "医学界": 12019, 
  "选管会": 12020, 
  "墨西哥城": 12021, 
  "独自": 12022, 
  "业经": 12023, 
  "university": 12024, 
  "处方": 12025, 
  "孟@@": 12026, 
  "750": 12027, 
  "统": 12028, 
  "童@@": 12029, 
  "簿册": 12030, 
  "前後": 12031, 
  "试用": 12032, 
  "区域局": 12033, 
  "游乐": 12034, 
  "周二": 12035, 
  "盆": 12036, 
  "ti": 12037, 
  "大球场": 12038, 
  "推断": 12039, 
  "开火": 12040, 
  "劲": 12041, 
  "问到": 12042, 
  "仲裁庭": 12043, 
  "ve": 12044, 
  "击": 12045, 
  "板@@": 12046, 
  "所@@": 12047, 
  "育": 12048, 
  "赶@@": 12049, 
  "察": 12050, 
  "疯狂": 12051, 
  "俊@@": 12052, 
  "求职者": 12053, 
  "笔者": 12054, 
  "950": 12055, 
  "杀伤性": 12056, 
  "澳@@": 12057, 
  "密": 12058, 
  "1800": 12059, 
  "尖端": 12060, 
  "划@@": 12061, 
  "犬": 12062, 
  "普雷维拉卡": 12063, 
  "三成": 12064, 
  "兼并": 12065, 
  "成文法": 12066, 
  "在@@": 12067, 
  "日军": 12068, 
  "晴": 12069, 
  "三十九": 12070, 
  "为人": 12071, 
  "规@@": 12072, 
  "消防员": 12073, 
  "优@@": 12074, 
  "反响": 12075, 
  "部@@": 12076, 
  "35.@@": 12077, 
  "自民党": 12078, 
  "并购": 12079, 
  "女皇": 12080, 
  "预约": 12081, 
  "骨干": 12082, 
  "腾出": 12083, 
  "244": 12084, 
  "74@@": 12085, 
  "北大": 12086, 
  "大都会": 12087, 
  "违": 12088, 
  "深思熟虑": 12089, 
  "适用性": 12090, 
  "决@@": 12091, 
  "15亿": 12092, 
  "非典型": 12093, 
  "五点@@": 12094, 
  "剔除": 12095, 
  "卡塔赫纳": 12096, 
  "=": 12097, 
  "主页": 12098, 
  "八八": 12099, 
  "目光": 12100, 
  "270": 12101, 
  "局限性": 12102, 
  "幼@@": 12103, 
  "教养": 12104, 
  "防雷": 12105, 
  "航道": 12106, 
  "帐篷": 12107, 
  "珠海": 12108, 
  "教统": 12109, 
  "忠@@": 12110, 
  "阳@@": 12111, 
  "累": 12112, 
  "越界": 12113, 
  "est@@": 12114, 
  "英国人": 12115, 
  "讲求": 12116, 
  "40多": 12117, 
  "盛行": 12118, 
  "蛋": 12119, 
  "tall": 12120, 
  "a/c.6": 12121, 
  "加元": 12122, 
  "先进性": 12123, 
  "笑@@": 12124, 
  "散会": 12125, 
  "摊": 12126, 
  "参谋长": 12127, 
  "春天": 12128, 
  "复制品": 12129, 
  "末尾": 12130, 
  "遇难": 12131, 
  "电邮": 12132, 
  "耗费": 12133, 
  "底下": 12134, 
  "战祸": 12135, 
  "附文": 12136, 
  "转授": 12137, 
  "购@@": 12138, 
  "业余": 12139, 
  "gra@@": 12140, 
  "时尚": 12141, 
  "l.9": 12142, 
  "四十三": 12143, 
  "98年": 12144, 
  "文见": 12145, 
  "droit": 12146, 
  "格外": 12147, 
  "摘录": 12148, 
  "袁@@": 12149, 
  "开头": 12150, 
  "败@@": 12151, 
  "第103": 12152, 
  "年期": 12153, 
  "脑": 12154, 
  "线@@": 12155, 
  "考古": 12156, 
  "失衡": 12157, 
  "全方位": 12158, 
  "电影节": 12159, 
  "精算": 12160, 
  "※": 12161, 
  "何在": 12162, 
  "检查官": 12163, 
  "步兵": 12164, 
  "实有": 12165, 
  "查看": 12166, 
  "年老": 12167, 
  "海内外": 12168, 
  "隔@@": 12169, 
  "捕@@": 12170, 
  "古物": 12171, 
  "过早": 12172, 
  "宿位": 12173, 
  "连环": 12174, 
  "修葺": 12175, 
  "谎言": 12176, 
  "驻守": 12177, 
  "罗安达": 12178, 
  "坚": 12179, 
  "外展": 12180, 
  "电梯": 12181, 
  "台湾省": 12182, 
  "布特罗斯": 12183, 
  "本地化": 12184, 
  "雅典": 12185, 
  "ah@@": 12186, 
  "猜测": 12187, 
  "首长级": 12188, 
  "阿拉@@": 12189, 
  "走势": 12190, 
  "良性": 12191, 
  "双手": 12192, 
  "喂养": 12193, 
  "trade": 12194, 
  "拉哈德": 12195, 
  "招收": 12196, 
  "八千@@": 12197, 
  "苑": 12198, 
  "地名": 12199, 
  "ff@@": 12200, 
  "万亿": 12201, 
  "可怜": 12202, 
  "黄大仙": 12203, 
  "启示": 12204, 
  "信守": 12205, 
  "德尔@@": 12206, 
  "官立": 12207, 
  "亭": 12208, 
  "开徵": 12209, 
  "甚为": 12210, 
  "journal": 12211, 
  "发育": 12212, 
  "第88": 12213, 
  "暴发": 12214, 
  "句话": 12215, 
  "弊案": 12216, 
  "厚度": 12217, 
  "颁授": 12218, 
  "小儿麻痹症": 12219, 
  "水费": 12220, 
  "升学": 12221, 
  "je@@": 12222, 
  "ai@@": 12223, 
  "截@@": 12224, 
  "育@@": 12225, 
  "九三年": 12226, 
  "组织者": 12227, 
  "承包人": 12228, 
  "呼吸道": 12229, 
  "lan@@": 12230, 
  "轨": 12231, 
  "定案": 12232, 
  "目@@": 12233, 
  "圣马力诺": 12234, 
  "街@@": 12235, 
  "视察员": 12236, 
  "浓缩": 12237, 
  "波及": 12238, 
  "保有": 12239, 
  "bi": 12240, 
  "浓缩铀": 12241, 
  "货船": 12242, 
  "32.@@": 12243, 
  "付清": 12244, 
  "契机": 12245, 
  "19年": 12246, 
  "bank": 12247, 
  "秦@@": 12248, 
  "指摘": 12249, 
  "sen@@": 12250, 
  "肆意": 12251, 
  "第99": 12252, 
  "念及": 12253, 
  "6时": 12254, 
  "圆": 12255, 
  "其下": 12256, 
  "li": 12257, 
  "处理厂": 12258, 
  "金融界": 12259, 
  "修订案": 12260, 
  "庄": 12261, 
  "身穿": 12262, 
  "前列": 12263, 
  "策": 12264, 
  "连系": 12265, 
  "试验性": 12266, 
  "寺": 12267, 
  "残障": 12268, 
  "利马": 12269, 
  "盒": 12270, 
  "平息": 12271, 
  "水污染": 12272, 
  "第100": 12273, 
  "集成": 12274, 
  "罐": 12275, 
  "进口国": 12276, 
  "一点儿": 12277, 
  "财": 12278, 
  "好奇": 12279, 
  "开口": 12280, 
  "电路": 12281, 
  "马拉@@": 12282, 
  "一经": 12283, 
  "安心": 12284, 
  "小泉纯一郎": 12285, 
  "弗里敦": 12286, 
  "勇": 12287, 
  "hong": 12288, 
  "要约": 12289, 
  "偏袒": 12290, 
  "现年": 12291, 
  "ary": 12292, 
  "休憩": 12293, 
  "add.5": 12294, 
  "佛": 12295, 
  "0.5%": 12296, 
  "que": 12297, 
  "振奋": 12298, 
  "捷@@": 12299, 
  "求诊": 12300, 
  "塞尔维亚人": 12301, 
  "1982": 12302, 
  "e-@@": 12303, 
  "餐馆": 12304, 
  "252": 12305, 
  "逃": 12306, 
  "鸭": 12307, 
  "就地": 12308, 
  "第一@@": 12309, 
  "海洋学": 12310, 
  "硬性": 12311, 
  "华沙": 12312, 
  "son": 12313, 
  "电线": 12314, 
  "贷": 12315, 
  "九四年": 12316, 
  "from:": 12317, 
  "悲观": 12318, 
  "混@@": 12319, 
  "l.10": 12320, 
  "塑料": 12321, 
  "单边": 12322, 
  "沈阳": 12323, 
  "文号": 12324, 
  "写@@": 12325, 
  "本国": 12326, 
  "马尔维纳斯": 12327, 
  "07": 12328, 
  "大火": 12329, 
  "归咎于": 12330, 
  "现职": 12331, 
  "原理": 12332, 
  "油轮": 12333, 
  "12亿": 12334, 
  "剧团": 12335, 
  "sar@@": 12336, 
  "二五@@": 12337, 
  "整治": 12338, 
  "征兵": 12339, 
  "饮料": 12340, 
  "库务署": 12341, 
  "权责": 12342, 
  "安第斯": 12343, 
  "困苦": 12344, 
  "预售": 12345, 
  "世界级": 12346, 
  "诗@@": 12347, 
  "居住地": 12348, 
  "部族": 12349, 
  "亲眼": 12350, 
  "斯基": 12351, 
  "灭火": 12352, 
  "探测器": 12353, 
  "bas@@": 12354, 
  "ong": 12355, 
  "商铺": 12356, 
  "泄漏": 12357, 
  "剩": 12358, 
  "撤@@": 12359, 
  "纵使": 12360, 
  "卡比拉": 12361, 
  "正值": 12362, 
  "国企": 12363, 
  "外在": 12364, 
  "等值": 12365, 
  "ani": 12366, 
  "愤慨": 12367, 
  "混凝土": 12368, 
  "制宪": 12369, 
  "穿过": 12370, 
  "卡拉ok": 12371, 
  "检查员": 12372, 
  "val@@": 12373, 
  "造林": 12374, 
  "攻@@": 12375, 
  "书写": 12376, 
  "转业": 12377, 
  "当地人": 12378, 
  "l.6": 12379, 
  "投资额": 12380, 
  "犯@@": 12381, 
  "指示性": 12382, 
  "渐进": 12383, 
  "征募": 12384, 
  "受苦": 12385, 
  "四十六": 12386, 
  "95%": 12387, 
  "判决书": 12388, 
  "四万": 12389, 
  "审判室": 12390, 
  "der": 12391, 
  "gdp": 12392, 
  "难怪": 12393, 
  "耕作": 12394, 
  "相近": 12395, 
  "第82": 12396, 
  "探亲": 12397, 
  "适于": 12398, 
  "核扩散": 12399, 
  "酒牌": 12400, 
  "潜艇": 12401, 
  "旧区": 12402, 
  "预算外": 12403, 
  "ki": 12404, 
  "3.1": 12405, 
  "门外": 12406, 
  "占@@": 12407, 
  "扶养": 12408, 
  "投身": 12409, 
  "款@@": 12410, 
  "线索": 12411, 
  "量化": 12412, 
  "穿越": 12413, 
  "服务费": 12414, 
  "乎": 12415, 
  "厚@@": 12416, 
  "穿@@": 12417, 
  "款待": 12418, 
  "发行局": 12419, 
  "kong": 12420, 
  "听讯": 12421, 
  "冒险": 12422, 
  "牧师": 12423, 
  "安全性": 12424, 
  "调到": 12425, 
  "定论": 12426, 
  "多云": 12427, 
  "矿@@": 12428, 
  "东涌": 12429, 
  "奥尔默特": 12430, 
  "断然": 12431, 
  "大连": 12432, 
  "36.@@": 12433, 
  "老公": 12434, 
  "加息": 12435, 
  "杨永强": 12436, 
  "监管局": 12437, 
  "论@@": 12438, 
  "雇": 12439, 
  "战火": 12440, 
  "教职员": 12441, 
  "少许": 12442, 
  "6万": 12443, 
  "格林纳达": 12444, 
  "扎实": 12445, 
  "盐": 12446, 
  "擅自": 12447, 
  "pri@@": 12448, 
  "海平面": 12449, 
  "五十二": 12450, 
  "一八@@": 12451, 
  "第102": 12452, 
  "爱心": 12453, 
  "行将": 12454, 
  "湖北": 12455, 
  "魅力": 12456, 
  "浪": 12457, 
  "霸权主义": 12458, 
  "1958年": 12459, 
  "东海": 12460, 
  "透": 12461, 
  "xxvi": 12462, 
  "合物": 12463, 
  "放射": 12464, 
  "cor@@": 12465, 
  "日方": 12466, 
  "议决": 12467, 
  "90万": 12468, 
  "叫@@": 12469, 
  "身心健康": 12470, 
  "访谈": 12471, 
  "三峡": 12472, 
  "水量": 12473, 
  "主旨": 12474, 
  "郑重": 12475, 
  "密封": 12476, 
  "分队": 12477, 
  "方可": 12478, 
  "汶人": 12479, 
  "1400": 12480, 
  "出面": 12481, 
  "偷窃": 12482, 
  "早@@": 12483, 
  "此@@": 12484, 
  "曹@@": 12485, 
  "可信性": 12486, 
  "才能": 12487, 
  "南海": 12488, 
  "白纸": 12489, 
  "发展区": 12490, 
  "1956年": 12491, 
  "医": 12492, 
  "偏差": 12493, 
  "1700": 12494, 
  "问责性": 12495, 
  "变迁": 12496, 
  "剧场": 12497, 
  "发件": 12498, 
  "到时": 12499, 
  "长足": 12500, 
  "318": 12501, 
  "伸张": 12502, 
  "厂房": 12503, 
  "缓冲区": 12504, 
  "血腥": 12505, 
  "不确定性": 12506, 
  "阿尔巴尼亚族": 12507, 
  "李启明": 12508, 
  "鹰": 12509, 
  "吹": 12510, 
  "关贸": 12511, 
  "陈词": 12512, 
  "舰队": 12513, 
  "秀": 12514, 
  "充": 12515, 
  "列于": 12516, 
  "野心": 12517, 
  "l.11": 12518, 
  "概数": 12519, 
  "重心": 12520, 
  "炸毁": 12521, 
  "罚款额": 12522, 
  "四点": 12523, 
  "分裂主义": 12524, 
  "麻疹": 12525, 
  "无限制": 12526, 
  "吸毒者": 12527, 
  "布特罗斯-加利": 12528, 
  "巴士拉": 12529, 
  "归于": 12530, 
  "职训局": 12531, 
  "书记处": 12532, 
  "常用": 12533, 
  "潘基文": 12534, 
  "官邸": 12535, 
  "二手": 12536, 
  "饮品": 12537, 
  "邦@@": 12538, 
  "ayn": 12539, 
  "讲师": 12540, 
  "保护@@": 12541, 
  "牛肉": 12542, 
  "导师": 12543, 
  "众笑": 12544, 
  "皇@@": 12545, 
  "民主派": 12546, 
  "人称": 12547, 
  "扼杀": 12548, 
  "岛@@": 12549, 
  "绍@@": 12550, 
  "北纬": 12551, 
  "鼓@@": 12552, 
  "op@@": 12553, 
  "拜": 12554, 
  "吊@@": 12555, 
  "布琼布拉": 12556, 
  "普里什蒂纳": 12557, 
  "主意": 12558, 
  "直航": 12559, 
  "孙明扬": 12560, 
  "联普": 12561, 
  "接任": 12562, 
  "设计师": 12563, 
  "政坛": 12564, 
  "因@@": 12565, 
  "工友": 12566, 
  "九九": 12567, 
  "做成": 12568, 
  "造就": 12569, 
  "禽鸟": 12570, 
  "虚拟": 12571, 
  "免@@": 12572, 
  "转折点": 12573, 
  "独有": 12574, 
  "商业化": 12575, 
  "煤炭": 12576, 
  "九千@@": 12577, 
  "第83": 12578, 
  "wa@@": 12579, 
  "家用": 12580, 
  "human": 12581, 
  "2.3": 12582, 
  "疏导": 12583, 
  "相容": 12584, 
  "辛勤": 12585, 
  "杀戮": 12586, 
  "酸@@": 12587, 
  "日刊": 12588, 
  "茨": 12589, 
  "评论员": 12590, 
  "san": 12591, 
  "神话": 12592, 
  "六十五": 12593, 
  "添": 12594, 
  "结核病": 12595, 
  "疲弱": 12596, 
  "宏@@": 12597, 
  "节制": 12598, 
  "说明书": 12599, 
  "棉@@": 12600, 
  "员@@": 12601, 
  "泉": 12602, 
  "ja": 12603, 
  "祝福": 12604, 
  "露": 12605, 
  "乏": 12606, 
  "置@@": 12607, 
  "穆巴拉克": 12608, 
  "副执行": 12609, 
  "ari@@": 12610, 
  "透彻": 12611, 
  "社群": 12612, 
  "怀着": 12613, 
  "陪": 12614, 
  "勤@@": 12615, 
  "装配": 12616, 
  "杜胡克": 12617, 
  "炸": 12618, 
  "拉开": 12619, 
  "一会儿": 12620, 
  "里亚尔": 12621, 
  "祖": 12622, 
  "通话": 12623, 
  "益@@": 12624, 
  "白人": 12625, 
  "必@@": 12626, 
  "陆上": 12627, 
  "疆界": 12628, 
  "岂": 12629, 
  "大业": 12630, 
  "第661": 12631, 
  "京@@": 12632, 
  "境界": 12633, 
  "端@@": 12634, 
  "初审": 12635, 
  "301": 12636, 
  "发信站": 12637, 
  "l.8": 12638, 
  "唐": 12639, 
  "顾@@": 12640, 
  "治国": 12641, 
  "农药": 12642, 
  "哎哟": 12643, 
  "备灾": 12644, 
  "大浪湾": 12645, 
  "播": 12646, 
  "政策性": 12647, 
  "no": 12648, 
  "病患": 12649, 
  "课堂": 12650, 
  "快@@": 12651, 
  "1月份": 12652, 
  "布达佩斯": 12653, 
  "伤@@": 12654, 
  "阀": 12655, 
  "高考": 12656, 
  "3.2": 12657, 
  "错@@": 12658, 
  "仗": 12659, 
  "12月份": 12660, 
  "六万": 12661, 
  "320": 12662, 
  "5.2": 12663, 
  "迁出": 12664, 
  "匪徒": 12665, 
  "惰性": 12666, 
  "布希": 12667, 
  "暴@@": 12668, 
  "黄容根": 12669, 
  "遣送": 12670, 
  "轻便": 12671, 
  "巴塞尔": 12672, 
  "玲": 12673, 
  "干什么": 12674, 
  "解读": 12675, 
  "＝": 12676, 
  "军费": 12677, 
  "副署长": 12678, 
  "派员": 12679, 
  "孟加拉": 12680, 
  "投下": 12681, 
  "词汇": 12682, 
  "乘@@": 12683, 
  "四分之三": 12684, 
  "聘": 12685, 
  "免责": 12686, 
  "神秘": 12687, 
  "上校": 12688, 
  "戒备": 12689, 
  "促": 12690, 
  "护理署": 12691, 
  "降@@": 12692, 
  "华尔街": 12693, 
  "ai": 12694, 
  "做为": 12695, 
  "沃": 12696, 
  "弊端": 12697, 
  "繁殖": 12698, 
  "随机": 12699, 
  "扶助": 12700, 
  "苯": 12701, 
  "仙@@": 12702, 
  "public": 12703, 
  "目击": 12704, 
  "信区": 12705, 
  "投掷": 12706, 
  "f.@@": 12707, 
  "歌@@": 12708, 
  "one": 12709, 
  "二六@@": 12710, 
  "侵占": 12711, 
  "倒是": 12712, 
  "传单": 12713, 
  "濒危": 12714, 
  "国力": 12715, 
  "说出": 12716, 
  "陈述书": 12717, 
  "邱@@": 12718, 
  "○": 12719, 
  "派位": 12720, 
  "贸发局": 12721, 
  "认清": 12722, 
  "万多": 12723, 
  "儿@@": 12724, 
  "签字人": 12725, 
  "交互": 12726, 
  "供应品": 12727, 
  "转发": 12728, 
  "花卉": 12729, 
  "流浪": 12730, 
  "兼有": 12731, 
  "长沙": 12732, 
  "起义": 12733, 
  "内心": 12734, 
  "原子": 12735, 
  "cn.7": 12736, 
  "246": 12737, 
  "密克罗尼西亚": 12738, 
  "诸@@": 12739, 
  "推广署": 12740, 
  "戏@@": 12741, 
  "差@@": 12742, 
  "2007-01-@@": 12743, 
  "达赖": 12744, 
  "眼泪": 12745, 
  "炒": 12746, 
  "冯智活": 12747, 
  "can@@": 12748, 
  "庄@@": 12749, 
  "捍卫者": 12750, 
  "伍@@": 12751, 
  "冯": 12752, 
  "电视剧": 12753, 
  "淫亵": 12754, 
  "特质": 12755, 
  "咸水": 12756, 
  "荷@@": 12757, 
  "例证": 12758, 
  "科学界": 12759, 
  "近@@": 12760, 
  "寡妇": 12761, 
  "198@@": 12762, 
  "一九九四": 12763, 
  "失控": 12764, 
  "65%": 12765, 
  "望@@": 12766, 
  "充@@": 12767, 
  "il": 12768, 
  "84@@": 12769, 
  "炉": 12770, 
  "班级": 12771, 
  "替代性": 12772, 
  "305": 12773, 
  "郑": 12774, 
  "军舰": 12775, 
  "有期": 12776, 
  "世行": 12777, 
  "低迷": 12778, 
  "防控": 12779, 
  "首@@": 12780, 
  "人民军": 12781, 
  "港@@": 12782, 
  "下车": 12783, 
  "自立": 12784, 
  "阿齐兹": 12785, 
  "周德熙": 12786, 
  "流网": 12787, 
  "乙类": 12788, 
  "追回": 12789, 
  "瓦尔": 12790, 
  "重任": 12791, 
  "膳食": 12792, 
  "第123": 12793, 
  "销货": 12794, 
  "江西": 12795, 
  "挤": 12796, 
  "上演": 12797, 
  "吨位": 12798, 
  "客观性": 12799, 
  "损伤": 12800, 
  "平日": 12801, 
  "击败": 12802, 
  "种@@": 12803, 
  "决策局": 12804, 
  "第iv部": 12805, 
  "炸@@": 12806, 
  "没法": 12807, 
  "牵连": 12808, 
  "酋长": 12809, 
  "花钱": 12810, 
  "国境": 12811, 
  "心理学家": 12812, 
  "尺寸": 12813, 
  "除@@": 12814, 
  "沉积": 12815, 
  "nu@@": 12816, 
  "纽带": 12817, 
  "业@@": 12818, 
  "揭发": 12819, 
  "明示": 12820, 
  "胶@@": 12821, 
  "紧要": 12822, 
  "排减量": 12823, 
  "省@@": 12824, 
  "关头": 12825, 
  "宋": 12826, 
  "乡@@": 12827, 
  "ted": 12828, 
  "pen@@": 12829, 
  "签立": 12830, 
  "splos": 12831, 
  "二百万": 12832, 
  "当晚": 12833, 
  "ve@@": 12834, 
  "规范性": 12835, 
  "38.@@": 12836, 
  "极限": 12837, 
  "第1992": 12838, 
  "河道": 12839, 
  "用人": 12840, 
  "托运人": 12841, 
  "险": 12842, 
  "聚": 12843, 
  "http://www.@@": 12844, 
  "4.2": 12845, 
  "誓言": 12846, 
  "06": 12847, 
  "童年": 12848, 
  "通关": 12849, 
  "焚烧": 12850, 
  "分流": 12851, 
  "推介": 12852, 
  "郎": 12853, 
  "扇": 12854, 
  "人际": 12855, 
  "姚明": 12856, 
  "储@@": 12857, 
  "阻塞": 12858, 
  "文化部": 12859, 
  "学说": 12860, 
  "搭@@": 12861, 
  "队长": 12862, 
  "搭乘": 12863, 
  "诺言": 12864, 
  "步@@": 12865, 
  "千百万": 12866, 
  "算@@": 12867, 
  "ren@@": 12868, 
  "内务部": 12869, 
  "错过": 12870, 
  "4a": 12871, 
  "伯": 12872, 
  "赶出": 12873, 
  "ze@@": 12874, 
  "值班": 12875, 
  "反政府": 12876, 
  "未知": 12877, 
  "维护者": 12878, 
  "萎缩": 12879, 
  "ang@@": 12880, 
  "cp.7": 12881, 
  "身高": 12882, 
  "陕西": 12883, 
  "收生": 12884, 
  "寄@@": 12885, 
  "民防": 12886, 
  "优待": 12887, 
  "违纪": 12888, 
  "球员": 12889, 
  "刺@@": 12890, 
  "巴人": 12891, 
  "挣扎": 12892, 
  "应讯": 12893, 
  "押记": 12894, 
  "罢免": 12895, 
  "赛马": 12896, 
  "订于": 12897, 
  "出於": 12898, 
  "发援": 12899, 
  "256": 12900, 
  "只得": 12901, 
  "筹供": 12902, 
  "行不通": 12903, 
  "第97": 12904, 
  "批@@": 12905, 
  "阻力": 12906, 
  "廖@@": 12907, 
  "南半球": 12908, 
  "市局": 12909, 
  "330": 12910, 
  "兴旺": 12911, 
  "概": 12912, 
  "公信力": 12913, 
  "情愿": 12914, 
  "助手": 12915, 
  "巡@@": 12916, 
  "精密": 12917, 
  "地面站": 12918, 
  "许诺": 12919, 
  "国庆": 12920, 
  "挣": 12921, 
  "牛奶": 12922, 
  "分数": 12923, 
  "五十一": 12924, 
  "猪@@": 12925, 
  "邮戳": 12926, 
  "sam@@": 12927, 
  "零星": 12928, 
  "较早": 12929, 
  "奈@@": 12930, 
  "东经": 12931, 
  "乐队": 12932, 
  "银行界": 12933, 
  "南南": 12934, 
  "高原": 12935, 
  "二七@@": 12936, 
  "屠宰": 12937, 
  "持@@": 12938, 
  "赋权": 12939, 
  "步行": 12940, 
  "隐含": 12941, 
  "七成": 12942, 
  "仙": 12943, 
  "□围": 12944, 
  "六千": 12945, 
  "束缚": 12946, 
  "第864": 12947, 
[...]
